{"</s>": 0, "<unk>": 1, ",": 2, ".": 3, "\u2581the": 4, "\u2581\"": 5, "\u2581to": 6, "'": 7, "\u2581of": 8, "?": 9, "\u2581-": 10, "s": 11, "\u2581and": 12, "\u2581a": 13, "\u2581in": 14, "\u2581I": 15, "\u2581that": 16, "\u2581\u043d\u0435": 17, "\u2581you": 18, "\u2581\u0456": 19, "\u2581\u0449\u043e": 20, "\u2581\u0432": 21, "\u2581\u043d\u0430": 22, "\u2581is": 23, "\u2581\u0437": 24, ":": 25, "\u2581\u0443": 26, "!": 27, "\u2581it": 28, "\u2581for": 29, "\u2581\u0434\u043e": 30, "\u0430": 31, "\u2581be": 32, "\u2581was": 33, "\u2581on": 34, "\u2581with": 35, "\u2581not": 36, "\u2581have": 37, "t": 38, "\u2581are": 39, "\u2581we": 40, "\u2581this": 41, "\u2581": 42, "...": 43, "\u2581\u0437\u0430": 44, "\u0443": 45, "\u2581\u0446\u0435": 46, "\u0456": 47, "\u2581\u044f": 48, "\u2581The": 49, "\u2581\u042f": 50, "\u2581as": 51, "\u0438": 52, "\u2581\u043f\u0440\u043e": 53, "\u2581(": 54, "\u2581his": 55, "\u2581\u044f\u043a": 56, "\u2581.\"": 57, "\u2581he": 58, ";": 59, "\u2581\u0432\u0438": 60, "\u2581will": 61, "\u2581God": 62, "-": 63, "\u2581can": 64, "\u2581\u0442\u0430": 65, ")": 66, "\u2581from": 67, "\u2581by": 68, "\u2581\u0432\u0456\u0434": 69, "\u2581they": 70, "\u2581do": 71, "\u2581\u043c\u0438": 72, "\u2581Jehovah": 73, "\u2581your": 74, "\u2581or": 75, "\u2581me": 76, "\u2581what": 77, "\u0435": 78, "\u2581all": 79, "\u2581\u043f\u043e": 80, "\u2581\u0434\u043b\u044f": 81, "\u2581You": 82, "\u2581\u0454": 83, "\u2581at": 84, "\u2581one": 85, "\u2581\u0430": 86, "\u2581\u0439\u043e\u0433\u043e": 87, "\u2581my": 88, "\u2581\u0423": 89, "\u2581\u0439": 90, "\u2581their": 91, "\u2581[": 92, "\u2581What": 93, "\u2581It": 94, "\u2581who": 95, "\u2581an": 96, "\u2581about": 97, "\u2581\u0449\u043e\u0431": 98, "\u043e": 99, "\u2581\u0432\u0456\u043d": 100, "\u2581were": 101, "m": 102, "\u043c": 103, "\u0438\u0439": 104, "\u2581And": 105, "re": 106, "\u2581our": 107, "\u2581had": 108, "\u2581\u0442\u0430\u043a": 109, "\u2581&": 110, "\u2581them": 111, "\u2581has": 112, "\u2581but": 113, "\u2581him": 114, "\u2581so": 115, "\u2581\u0432\u043e\u043d\u0438": 116, "ing": 117, "\u2581us": 118, "\u2581\u043a\u043e\u043b\u0438": 119, "\u2581would": 120, "\u2581'": 121, "\u2581out": 122, "\u2581there": 123, "\u2581people": 124, "\u2581know": 125, "\u0438\u0445": 126, "\u2581\u0410": 127, "\u043e\u043c": 128, "\u0441\u044f": 129, "\u2581\u0442\u043e": 130, "\u2581up": 131, "\u0456\u0432": 132, "\u2581time": 133, "\u2581when": 134, "\u2581Jesus": 135, "\u2581We": 136, "\u044f": 137, "\u2581Bible": 138, "\u2581\u044f\u043a\u0456": 139, "\u2581In": 140, "\u25811": 141, "\u2581\u0426\u0435": 142, "\u2581like": 143, "\u2581He": 144, "\u2581\u0406": 145, "\u2581if": 146, "\u2581\u0431\u0443\u043b\u043e": 147, "\u2581just": 148, "\u044e": 149, "\u2581\u0442\u0438": 150, "\u2581\u0430\u0431\u043e": 151, "\u2581more": 152, "\u043e\u0433\u043e": 153, "]": 154, "\u2581\u0412\u0456\u043d": 155, "\u2581So": 156, "\u2581\u0431": 157, "\u0439": 158, "\u2581her": 159, "\u2581\u0436": 160, "\u2581\u0441": 161, "\u2581no": 162, "\u2581did": 163, "\u2581But": 164, "\u2581\u0447\u0438": 165, "\u2581A": 166, "\u2581This": 167, "\u2581\u0431\u0443\u0434\u0435": 168, "\u2581been": 169, "\u2581some": 170, "\u2581\u042f\u043a": 171, "\u2581\u0442\u0435": 172, "\u2581\u0430\u043b\u0435": 173, "d": 174, "\u2581\u0442\u043e\u0433\u043e": 175, "\u2581\u043d\u0430\u0441": 176, "\u2581\u043c\u0435\u043d\u0435": 177, "\u2581\u0404\u0433\u043e\u0432\u0438": 178, "\u2581\u041d\u0435": 179, "\u2581\u0410\u043b\u0435": 180, "\u2581How": 181, "a": 182, "\u2581here": 183, "\u2581\u0432\u0441\u0435": 184, "\u2581\u0447\u0430\u0441": 185, "\u2581\u0431\u0443\u0432": 186, "\u2581\u043f\u0456\u0434": 187, "\u2581life": 188, "\u2581may": 189, "\u2581how": 190, "\u0445": 191, "\u2581which": 192, "\u2581right": 193, "\u2581\u043b\u044e\u0434\u0435\u0439": 194, "\u2581get": 195, "\u2581don": 196, "\u2581\u043c\u043e\u0436\u0435": 197, "\u2581Tom": 198, "\u2581these": 199, "\u2581see": 200, "\u2581,\"": 201, "\u2581\u0446\u044c\u043e\u0433\u043e": 202, "\u0457": 203, "\u2581\u0457\u0457": 204, "\u2581those": 205, "\u2581\u0447\u0442\u043e": 206, "\u2581into": 207, "\u2581\u0436\u0438\u0442\u0442\u044f": 208, "\u2581\u0434\u0443\u0436\u0435": 209, "\u2581also": 210, "\u2581want": 211, "\u2581\u041c\u0438": 212, "\u2581\u0442\u043e\u043c\u0443": 213, "\u2581could": 214, "ed": 215, "\u2581way": 216, "\u2581\u0412": 217, "\u2581\u0412\u0438": 218, "\u2581good": 219, "\u2581said": 220, "\u2581go": 221, "\u0432": 222, "\u0438\u043c": 223, "\u2581\u0457\u0445": 224, "\u2581other": 225, "\u2581now": 226, "\u2581\u0429\u043e": 227, "\u2581They": 228, "\u2581than": 229, "ll": 230, "\u2581\u0449\u0435": 231, "\u2581she": 232, "\u2581\u0427\u0438": 233, "\u2581\u0431\u0443\u0442\u0438": 234, "\"": 235, "\u2581\u0442\u0430\u043a\u043e\u0436": 236, "\u2581That": 237, "\u2581many": 238, "\u2581world": 239, "\u043d\u0456": 240, "\u2581No": 241, "\u0442\u0435": 242, "\u2581then": 243, "\u2581should": 244, "\u043e\u044e": 245, "\u2581over": 246, "\u2581\u043f\u0440\u0438": 247, "\u2581\u043d\u0430\u043c": 248, "\u0430\u043c\u0438": 249, "\u2581\u0422\u0430\u043a": 250, "\u2581man": 251, "\u2581\u0432\u043e\u043d\u0430": 252, "\u043d\u0430": 253, "\u2581\u0406\u0441\u0443\u0441": 254, "\u2581make": 255, "\u2581If": 256, "\u2581things": 257, "\u2581even": 258, "\u2581\u044f\u043a\u0438\u0439": 259, "\u2581\u043c\u0435\u043d\u0456": 260, "\u2581\u043c\u043e\u0436\u043d\u0430": 261, "\u2581only": 262, "\u043e\u0457": 263, "\u2581\u0411\u043e\u0433": 264, "\u2581\u041d\u0430": 265, "\u2581\u0417": 266, "\u2581such": 267, "\u0442": 268, "\u2581think": 269, "\u2581\u0445\u0442\u043e": 270, "\u2581\u0422\u0438": 271, "\u2581because": 272, "\u2581\u044f\u043a\u0449\u043e": 273, "\u2581going": 274, "\u043c\u0438": 275, "\u2581\u042f\u043a\u0449\u043e": 276, "\u2581need": 277, "\u043a\u0430": 278, "\u2581work": 279, "\u2581years": 280, "ve": 281, "\u2581first": 282, "\u2581help": 283, "\u2581very": 284, "\u2581\u0431\u0430\u0433\u0430\u0442\u043e": 285, "\u0441\u044c": 286, "\u2581\u0447\u0435\u0440\u0435\u0437": 287, "\u2581\u0404\u0433\u043e\u0432\u0430": 288, "\u2581\u0432\u0436\u0435": 289, "\u0448": 290, "\u2581does": 291, "\u2581\u0431\u0443\u043b\u0438": 292, "\u2581\u0432\u0430\u0441": 293, "\u2581\u0422\u043e\u043c": 294, "\u0441": 295, "\u2581\u0442\u0435\u0431\u0435": 296, "\u2581Why": 297, "\u2581\u0438": 298, "\u2581day": 299, "\u043a\u0438": 300, "\u2581\u0431\u0456\u043b\u044c\u0448\u0435": 301, "\u0442\u0438": 302, "\u2581come": 303, "\u2581\u0432\u0430\u043c": 304, "\u2581say": 305, "\u043c\u043e": 306, "\u2581take": 307, "\u2581\u041a\u043e\u043b\u0438": 308, "\u2581\u0441\u043a\u0430\u0437\u0430\u0432": 309, "\u2581love": 310, "\u2581\u0411\u043e\u0433\u0430": 311, "\u2581back": 312, "\u2581\u0412\u043e\u043d\u0438": 313, "\u2581two": 314, "\u2581When": 315, "\u2581\u0417\u0430": 316, "\u2581\u0431\u043e": 317, "\u2581any": 318, ".\"": 319, "\u2581\u0440\u043e\u043a\u0456\u0432": 320, "\u043d\u0435": 321, "\u2581\u043b\u0438\u0448\u0435": 322, "\u25812": 323, "\u2581its": 324, "\u2581/": 325, "\u2581\u043e": 326, "\u2581\u043d\u0438\u0445": 327, "\u043b\u0438": 328, "\u2581\u0442\u0443\u0442": 329, "\u2581\u0434\u0435": 330, "\u2581made": 331, "\u043a\u0443": 332, "\u2581\u041f\u043e": 333, "\u2581\u043b\u044e\u0434\u0438": 334, "\u2581For": 335, "\u2581being": 336, "ly": 337, "\u2581\u0437\u0456": 338, "\u2581page": 339, "\u2581new": 340, "e": 341, "\u2581much": 342, "\u2581\u0432\u0441\u0456": 343, "\u043e\u043c\u0443": 344, "\u2581where": 345, "\u2581really": 346, "\u2581got": 347, "\u2581earth": 348, "\u2581\u043d\u0430\u0432\u0456\u0442\u044c": 349, "n": 350, "\u2581down": 351, "\u2581\u0440\u043e\u043a\u0443": 352, "\u2581\u0442\u044b": 353, "\u2581\u0456\u0437": 354, "\u2581must": 355, "\u0433\u043e": 356, "\u2581name": 357, "\u2581\u0431\u0443\u043b\u0430": 358, "\u043b\u0430": 359, "\u2581well": 360, "\u2581\u0441\u0435\u0431\u0435": 361, "\u043c\u0443": 362, "\u2581\u043c\u0430\u0454": 363, "\u2581Witnesses": 364, "\u2581\u043f\u0440\u043e\u0441\u0442\u043e": 365, "\u0431": 366, "\u043d\u043e": 367, "\u2581Christ": 368, "\u2581Do": 369, "y": 370, "b": 371, "\u2581before": 372, "\u2581\u0446\u0435\u0439": 373, "\u0456\u0439": 374, "\u2581\u043e\u0431": 375, "er": 376, "\u0430\u0445": 377, "\u2581\u0419\u043e\u0433\u043e": 378, "\u2581\u0446\u0456": 379, "o": 380, "\u2581\u0427\u043e\u043c\u0443": 381, "/": 382, "\u2581\u0421": 383, "\u2581There": 384, "\u2581\u0442\u0456\u043b\u044c\u043a\u0438": 385, "\u0438\u043c\u0438": 386, "\u2581says": 387, "\u2581let": 388, "\u2581after": 389, "\u2581\u044d\u0442\u043e": 390, "\u2581\u043f\u0435\u0440\u0435": 391, "\u2581\u044f\u043a\u0430": 392, "\u2581She": 393, "\u2581\u043f\u0435\u0440\u0435\u0434": 394, "i": 395, "\u2581As": 396, "\u2581children": 397, "\u2581something": 398, "\u2581Paul": 399, "\u2581\u043e\u0434\u0438\u043d": 400, "\u2581through": 401, "\u2581use": 402, "I": 403, "\u2581too": 404, "\u2581\u043c\u043e\u0436\u0443\u0442\u044c": 405, "\u2581own": 406, "\u2581Christian": 407, "\u043d": 408, "\u2581\u043f": 409, "\u2581\u0422\u043e\u043c\u0443": 410, "\u2581\u0440\u043e\u0437": 411, "\u2581never": 412, "\u2581little": 413, "\u2581family": 414, "\u2581give": 415, "%": 416, "S": 417, "\u0437": 418, "\u2581find": 419, "\u2581most": 420, "\u2581\u043d\u0430\u0434": 421, "\u2581same": 422, "\u2581another": 423, "\u0442\u044c\u0441\u044f": 424, "\u2581\u041e": 425, "\u2581C": 426, "\u0442\u043e": 427, "\u2581used": 428, "\u2581\u0446\u044c\u043e\u043c\u0443": 429, "\u2581why": 430, "\u2581\u043d\u0456\u0436": 431, "\u0446\u0456": 432, "\u2581\u0441\u0442\u043e\u0440\u0456\u043d\u0446\u0456": 433, "\u2581look": 434, "\u2581\u0456\u043d\u0448\u0438\u0445": 435, "\u2581\u0439\u043e\u043c\u0443": 436, "\u2581\u0457\u043c": 437, "\u2581might": 438, "\u2581times": 439, "\u0434": 440, "\u2581example": 441, "\u2581\u0441\u0432\u043e\u044e": 442, "\u2581Well": 443, "\u2581others": 444, "\u2581\u0431\u0435\u0437": 445, "the": 446, "\u2581\u0436\u0435": 447, "\u2581still": 448, "\u043a": 449, "\u2581\u0411\u0456\u0431\u043b\u0456\u0457": 450, "\u2581Oh": 451, "\u2581To": 452, "\u2581great": 453, "\u2581am": 454, "\u2581home": 455, "\u2581\u0412\u043e\u043d\u0430": 456, "\u2581\u0447\u043e\u043c\u0443": 457, "\u2581men": 458, "\u2581\u043c\u043e\u0436\u0435\u0442\u0435": 459, "\u2581doing": 460, "\u2581\u043f\u0456\u0441\u043b\u044f": 461, "\u2581true": 462, "\u2581Is": 463, "\u044c": 464, "\u043d\u0443": 465, "\u2581Yeah": 466, "\u2581found": 467, "\u2581long": 468, "\u2581\u043d\u044c\u043e\u0433\u043e": 469, "\u2581\u0442\u043e\u0439": 470, "\u2581\u0437\u0435\u043c\u043b\u0456": 471, "\u2581\u041e\u0442\u0436\u0435": 472, "\u2581today": 473, "\u2581\u0431\u0438": 474, "\u2581year": 475, "\u2581\u0442\u0438\u0445": 476, "\u2581off": 477, "\u2581Kingdom": 478, "\u2581Yes": 479, "\u2581--": 480, "\u2581\u0442\u043e\u0434\u0456": 481, "\u2581\u0406\u0441\u0443\u0441\u0430": 482, "\u2581\u0441\u0432\u043e\u0433\u043e": 483, "\u2581each": 484, "\u2581\u041d\u0456": 485, "\u2581Christians": 486, "\u25813": 487, "\u2581\u043d\u0456": 488, "\u2581\u0440\u043e\u0431\u0438\u0442\u0438": 489, "\u2581Let": 490, "\u2581\u0441\u0432\u043e\u0457\u0445": 491, "\u2581\u0434\u043e\u0431\u0440\u0435": 492, "\u2581\u0441\u043b\u0456\u0434": 493, "\u2581part": 494, "\u2581put": 495, "\u2581thing": 496, "\u2581\u0442\u0430\u043c": 497, "\u043d\u0438\u0439": 498, "\u2581\u0442\u043e\u0431\u0456": 499, "\u2581become": 500, "\u2581\u0437\u0440\u043e\u0431\u0438\u0442\u0438": 501, "\u2581All": 502, "\u2581\u044f\u043a\u0443": 503, "\u2581\u0437\u043d\u0430\u044e": 504, "\u2581\u0414\u043e": 505, ").": 506, "\u2581place": 507, "\u2581called": 508, "\u2581\u044f\u043a\u0438\u0445": 509, "\u2581faith": 510, "\u2581My": 511, "\u2581\u0447\u0430\u0441\u0443": 512, "\u2581\u0422\u044b": 513, "in": 514, "\u2581every": 515, "\u2581Now": 516, "\u2581away": 517, "\u2581death": 518, "\u2581didn": 519, "\u2581\u0442\u0435\u043f\u0435\u0440": 520, "\u2581One": 521, "E": 522, "\u2581spirit": 523, "\u2581\u0442\u0438\u043c": 524, "\u2581tell": 525, "\u2581three": 526, "\u2581\u0446\u044e": 527, "\u2581person": 528, "\u2581under": 529, "\u043b\u043e": 530, "),": 531, "\u0454": 532, "\u0436": 533, "\u2581\u043c\u0456\u0436": 534, "\u258110": 535, "\u2581words": 536, "\u2581feel": 537, "c": 538, "\u043b": 539, "\u2581\u0414\u0430": 540, "\u2581\u0449\u043e\u0441\u044c": 541, "\u043e\u043a": 542, "\u2581again": 543, "\u2581heart": 544, "\u2581\u0442\u0440\u0435\u0431\u0430": 545, "\u2581\u043a\u0430\u0436\u0435": 546, "\u0442\u044c": 547, "\u258115": 548, "\u258120": 549, "\u2581human": 550, "\u2581\u0434\u043e\u043f\u043e\u043c\u043e\u0433\u043e\u044e": 551, "\u043d\u0438\u0445": 552, "\u2581keep": 553, "\u2581\u0446\u0438\u0445": 554, "\u2581came": 555, "\u2581\u041f\u0430\u0432\u043b\u043e": 556, "\u2581\u043e\u0442": 557, "\u2581end": 558, "\u043d\u044f": 559, "\u2581mean": 560, "\u2581\u043f\u043e\u0442\u0440\u0456\u0431\u043d\u043e": 561, "\u2581\u0442\u0456": 562, "\u0440": 563, "\u2581\u0441\u043e\u0431\u0456": 564, "\u2581\u0441\u043b\u043e\u0432\u0430": 565, "\u2581told": 566, "\u2581\u043c\u043e\u0436\u0435\u043c\u043e": 567, "\u2581\u0411\u0456\u0431\u043b\u0456\u044f": 568, "\u2581old": 569, "\u0456\u0441\u0442\u044c": 570, "\u2581ones": 571, "\u25815": 572, "\u2581course": 573, "\u2581book": 574, "\u2581\u0441\u0432\u043e\u0457": 575, "\u2581number": 576, "\u2581\u0431\u0443\u0434\u044c": 577, "\u2581\u043d\u0456\u043a\u043e\u043b\u0438": 578, "\u2581\u0431\u0443\u0434\u0443\u0442\u044c": 579, "\u2581last": 580, "\u2581John": 581, "\u2581\u0432\u044b": 582, "\u2581\u0441\u044c\u043e\u0433\u043e\u0434\u043d\u0456": 583, "\u2581\u0411\u043e\u0436\u0435": 584, "\u2581\u0437\u0430\u0432\u0436\u0434\u0438": 585, "\u043c\u0435": 586, "\u2581against": 587, "\u2581left": 588, "\u2581show": 589, "\u2581gonna": 590, "C": 591, "\u2581kind": 592, "\u0433": 593, "\u0443\u0432\u0430\u0442\u0438": 594, "\u2581means": 595, "th": 596, "\u0438\u0442\u044c": 597, "\u2581always": 598, "\u2581\u0434\u0456\u0442\u0435\u0439": 599, "\u2581\u0441\u0430\u043c\u0435": 600, "\u2581set": 601, "\u2581\u043f\u043e\u0432\u0438\u043d\u043d\u0456": 602, "\u2581B": 603, "\u2581...": 604, "\u2581parents": 605, "\u2581congregation": 606, "\u2581spiritual": 607, "\u0437\u0430": 608, "\u0438\u0442\u0438": 609, "\u2581thought": 610, "\u2581\u043c\u0430\u044e\u0442\u044c": 611, "al": 612, "\u2581Picture": 613, "\u2581\u043c\u0435\u043d\u044f": 614, "\u2581around": 615, "\u2581\u0445\u043e\u0447\u0443": 616, "\u25814": 617, "\u2581\u044f\u043a\u0435": 618, "\u2581\u0418": 619, "\u2581\u042d\u0442\u043e": 620, "\u2581S": 621, "\u2581without": 622, "\u2581himself": 623, "\u2581Mary": 624, "\u2581house": 625, "\u2581K": 626, "\u2581actually": 627, "\u2581live": 628, "\u2581Then": 629, "\u2581different": 630, "\u2581\u043c\u0430\u0442\u0438": 631, "\u2581better": 632, "\u2581days": 633, "\u2581\u0440\u0430\u0437": 634, "\u2581done": 635, "\u2581*": 636, "\u2581\u0434\u0435\u043d\u044c": 637, "\u2581young": 638, "\u043d\u0438": 639, "\u2581\u0442\u0430\u043a\u0456": 640, "\u2581New": 641, "\u2581\u0456\u043d\u0448\u0456": 642, "\u044b": 643, "\u2581\u0432\u0441\u0456\u0445": 644, "\u2581between": 645, "\u2581\u0441\u0432\u0456\u0442\u0456": 646, "\u2581read": 647, "\u2581truth": 648, "\u043b\u044c": 649, "\u2581\u0446\u0456\u0454\u0457": 650, "\u2581\u041d\u0443": 651, "\u2581upon": 652, "\u2581Are": 653, "\u2581while": 654, "\u2581\u041f\u0440\u043e": 655, "\u2581\u0441\u0456\u043c": 656, "\u2581word": 657, "\u2581talk": 658, "\u2581\u0441\u0432\u0456\u0442\u0443": 659, "--": 660, "\u2581Your": 661, "\u2581\u044f\u043a\u043e\u0433\u043e": 662, "r": 663, "\u2581able": 664, "\u0448\u0438": 665, "\u2581study": 666, "\u2581both": 667, "\u2581\u0440": 668, "\u2581\u266a": 669, "\u2581\u043b\u044e\u0431\u043e\u0432": 670, "\u25818": 671, "\u2581\u041c\u0435\u043d\u0456": 672, "\u2581\u0456\u043c": 673, "\u2581\u043e\u0434\u043d\u043e\u0433\u043e": 674, "\u2581At": 675, "\u2581system": 676, "\u2581\u041e\u0434\u043d\u0430\u043a": 677, "\u2581ever": 678, "\u2581\u043a": 679, "\u2581often": 680, "\u2581mind": 681, "\u2581\u043a\u0430\u043a": 682, "\u25813:": 683, "\u2581\u0441\u0432\u043e\u0454": 684, "\u2581money": 685, "\u0442\u0430": 686, "\u2581file": 687, "\u2581important": 688, "\u2581Some": 689, "\u2581sure": 690, "\u25812:": 691, "\u043b\u0456": 692, "\u2581\u043c\u0430\u0432": 693, "\u2581\u0433\u043e\u0432\u043e\u0440\u0438\u0442\u044c": 694, "\u043d\u043e\u0433\u043e": 695, "\u2581though": 696, "\u043e\u0432": 697, "\u2581hope": 698, "\u2581Who": 699, "\u043d\u0438\u043c": 700, "\u2581s": 701, "\u2581\u0430\u0431\u0438": 702, "\u2581\u0441\u0432\u0456\u0442": 703, "\u2581\u043b\u044e\u0434\u0438\u043d\u0430": 704, "\u2581fact": 705, "\u2581water": 706, "\u0430\u043c": 707, "\u2581\u0447\u0430\u0441\u0442\u043e": 708, "\u2581\u043c\u043d\u0435": 709, "\u258118": 710, "\u2581\u0441\u043a\u0430\u0437\u0430\u0442\u0438": 711, "\u2581father": 712, "\u2581\u0440\u0430\u0437\u043e\u043c": 713, "\u043f": 714, "l": 715, "\u2581Don": 716, "\u258112": 717, "\u2581together": 718, "\u2581given": 719, "\u2581Can": 720, "\u2581went": 721, "\u2581\u0442\u0430\u043a\u0435": 722, "\u2581view": 723, "\u2581next": 724, "\u2581power": 725, "\u044f\u0442\u044c": 726, "\u2581call": 727, "\u2581\u0406\u043b\u044e\u0441\u0442\u0440\u0430\u0446\u0456\u044f": 728, "\u2581believe": 729, "\u2581However": 730, "\u2581\u0435": 731, "\u2581\u0442\u0435\u0436": 732, ",\"": 733, "\u2581k": 734, "\u2581\u0440\u043e\u0446\u0456": 735, "\u2581change": 736, "\u2581\u0446\u044f": 737, "\u2581\u043c\u043e\u0436\u043b\u0438\u0432\u043e": 738, "\u2581Not": 739, "\u2581later": 740, "\u2581hand": 741, "\u2581\u043d\u0435\u043c\u0430\u0454": 742, "\u2581few": 743, "es": 744, "\u2581\u0441\u0432\u043e\u0457\u043c": 745, "\u2581\u0425\u0440\u0438\u0441\u0442\u0430": 746, "\u2581\u043e\u043d": 747, "\u2581wife": 748, "\u2581\u043f\u0440\u043e\u0442\u0438": 749, "\u2581Come": 750, "A": 751, "\u0447": 752, "\u2581\u0447\u043e\u043b\u043e\u0432\u0456\u043a": 753, "\u2581\u043d\u0438\u043c": 754, "x": 755, "\u2581mother": 756, "\u2581anything": 757, "\u2581\u0404\u0433\u043e\u0432\u0456": 758, "_": 759, "\u2581took": 760, "\u25811:": 761, "\u2581among": 762, "\u2581\u0422\u043e\u0436": 763, "\u2581living": 764, "\u2581Hey": 765, "\u2581\u0427\u0442\u043e": 766, "\u2581during": 767, "\u2581Okay": 768, "\u2581learn": 769, "\u0438\u0432": 770, "\u2581\u0421\u0432\u0456\u0434\u043a\u0456\u0432": 771, "\u2581order": 772, "\u043f\u043e": 773, "\u2581\u043d\u0456\u0447\u043e\u0433\u043e": 774, "\u2581\u043f\u043e\u0432": 775, "\u2581After": 776, "\u2581having": 777, "\u2581\u0447\u043e\u0433\u043e": 778, "\u2581\u25a1": 779, "\u2581blood": 780, "\u2581\u041f\u0440\u043e\u0442\u0435": 781, "\u2581\u0437\u043d\u043e\u0432\u0443": 782, "\u2581news": 783, "\u2581\u043f\u0430\u043c": 784, "\u25814:": 785, "\u2581Father": 786, "\u2581\u041c\u0435\u0440\u0456": 787, "\u2581became": 788, "\u2581wanted": 789, "\u2581\u0429\u043e\u0431": 790, "\u2581making": 791, "\u2581\u0442\u0435\u0431\u044f": 792, "\u2581\u043c\u0456\u0433": 793, "\u2581themselves": 794, "\u2581\u0437\u0430\u0440\u0430\u0437": 795, "\u2581Did": 796, "p": 797, "\u2581On": 798, "\u2581kde": 799, "\u2581By": 800, "\u2581\u0414\u0435": 801, "\u2581Where": 802, "\u2581lot": 803, "\u2581\u0412\u0456\u0434": 804, "\u2581point": 805, "\u2581These": 806, "\u2581gave": 807, "\u2581\u041f": 808, "\u2581understand": 809, "\u2581son": 810, "\u2581already": 811, "\u2581\u0446\u0438\u043c": 812, "\u2581Word": 813, "\u2581%1": 814, "\u2581\u0425\u0442\u043e": 815, "\u2581\u043c\u043e\u0433\u043b\u0438": 816, "\u2581century": 817, "\u258130": 818, "\u25816": 819, "\u2581\u0437\u043d\u0430\u0447\u0435\u043d\u043d\u044f": 820, "\u2581city": 821, "\u2581someone": 822, "\u2581David": 823, "\u2581\u041e\u0441\u044c": 824, "\u2581apostle": 825, "\u2581saw": 826, "\u2581wrote": 827, "\u2581Israel": 828, "\u2581\u0411\u043e\u0436\u043e\u0433\u043e": 829, "\u2581care": 830, "\u2581night": 831, "\u2581since": 832, "\u2581Just": 833, "The": 834, "\u2581\u0441\u0432\u0456\u0439": 835, "\u0432\u0430": 836, "\u2581nothing": 837, "\u2581asked": 838, "\u2581whole": 839, "\u2581\u0442\u0440\u0438": 840, "\u2581Because": 841, "3": 842, "\u2581F": 843, "\u2581child": 844, "\u2581With": 845, "\u2581\u0414\u043b\u044f": 846, "\u2581bad": 847, "2": 848, "\u0421": 849, "\u0442\u0456": 850, "\u2581yet": 851, "\u2581start": 852, "\u2581\u043c\u043e\u0436\u0443": 853, "\u2581\u043c\u0430\u043b\u0438": 854, "\u043b\u044f": 855, "\u2581body": 856, "\u043e\u0432\u0456": 857, "\u2581reason": 858, "\u2581\u0434\u0432\u0430": 859, "\u25815:": 860, "\u2581woman": 861, "\u2581\u0412\u0441\u0435": 862, "\u2581\u0435\u0433\u043e": 863, "\u2581\u043c\u044b": 864, "or": 865, "\u2581wrong": 866, "\u2581Peter": 867, "\u2581saying": 868, "\u2581peace": 869, "\u2581real": 870, "\u2581ask": 871, "\u2581\u043d\u0435\u0457": 872, "\u2581best": 873, "\u25817": 874, "\u2581hard": 875, "\u0438\u043b\u0438": 876, "\u2581dead": 877, "\u2581coming": 878, "\u2581full": 879, "\u2581began": 880, "\u258125": 881, "\u2581information": 882, "\u2581His": 883, "\u2581\u041d\u043e": 884, "\u2581brothers": 885, "\u2581\u0421\u0432\u0456\u0434\u043a\u0438": 886, "\u2581\u043d": 887, "\u2581bring": 888, "\u2581\u043d\u043e": 889, "\u2581problem": 890, "\u2581\u0431\u0430\u0433\u0430\u0442\u044c\u043e\u0445": 891, "\u2581high": 892, "\u2581\u0434\u043d\u044f": 893, "\u2581\u2022": 894, "\u2581\u0441\u0430\u043c\u043e": 895, "\u2581seen": 896, "\u2581\u041e\u0431": 897, "\u2581Satan": 898, "\u2581\u043d\u0438\u043c\u0438": 899, "\u2581case": 900, "\u2581\u0442\u0430\u043a\u0438\u0439": 901, "\u2581school": 902, "\u2581\u0422\u043e\u0434\u0456": 903, "@": 904, "\u2581\u041a\u0440\u0456\u043c": 905, "\u2581food": 906, "\u2581war": 907, "\u2581everything": 908, "\u2581worship": 909, "\u2581cannot": 910, "\u2581until": 911, "\u043a\u043e": 912, "\u2581\u0447\u0438\u043d\u043e\u043c": 913, "\u2581\u0426\u0430\u0440\u0441\u0442\u0432\u0430": 914, "\u2581try": 915, "\u2581\u0442\u0430\u043a\u0438\u0445": 916, "\u2581\u0449\u043e\u0434\u043e": 917, "\u2581\u043c": 918, "\u2581matter": 919, "\u2581free": 920, "\u2581\u041d\u0435\u0442": 921, "\u2581yourself": 922, "\u2581fine": 923, "\u2581D": 924, "\u2581far": 925, "\u0443\u0432\u0430\u043d\u043d\u044f": 926, "\u043a\u043e\u044e": 927, "\u25819": 928, "\u2581\u043c\u0456\u0439": 929, "\u2581\u0434\u0430\u0432": 930, "\u2581\u041d\u0430\u043f\u0440\u0438\u043a\u043b\u0430\u0434": 931, "\u2581\u041f\u0456\u0434": 932, "\u2581\u0426\u0435\u0439": 933, "\u258111": 934, "\u2581\u044f\u043a\u043e\u043c\u0443": 935, "\u0430\u0432": 936, "\u2581service": 937, "\u2581\u0431\u044b": 938, "\u2581\u0434\u0430\u043b\u0456": 939, "\u2581O": 940, "\u2581P": 941, "\u043e\u0441\u0442\u0456": 942, "\u2581\u043d\u0430\u0448": 943, "\u2581using": 944, "\u2581\u0422\u0435\u043f\u0435\u0440": 945, "\u2581\u041a": 946, "\u2581\u043e\u0441\u044c": 947, "\u0447\u0438": 948, "\u0432\u0438": 949, "\u2581\u043f\u0440\u0438\u043a\u043b\u0430\u0434": 950, "\u25816:": 951, "\u2581\u043e\u0437\u043d\u0430\u0447\u0430\u0454": 952, "\u0435\u043c": 953, "\u2581religious": 954, "\u042f": 955, "\u2581From": 956, "\u2581future": 957, "\u2581open": 958, "\u2581happy": 959, "\u2581\u041f\u0456\u0441\u043b\u044f": 960, "\u2581possible": 961, "\u2581\u0434\u0435\u044f\u043a\u0456": 962, "\u2581\u0422\u0430": 963, "\u2581\u0411\u043e": 964, "\u2581\u0441\u043e": 965, "\u2581\u043b\u044e\u0434\u044f\u043c": 966, "\u2581whom": 967, "\u2581\u041e\u043d": 968, "\u2581\u043d\u0430\u0448\u0456": 969, "\u2581face": 970, "\u2581\u043a\u0456\u043b\u044c\u043a\u0430": 971, "\u2581\u0426\u0456": 972, "ic": 973, "\u2581Our": 974, "\u2581\u0434\u043e\u043f\u043e\u043c\u043e\u0433\u0442\u0438": 975, "\u2581leave": 976, "\u043c\u0430": 977, "\u2581World": 978, "\u2581\u0443\u0436\u0435": 979, "\u2581four": 980, "\u2581message": 981, "\u2581enough": 982, "\u2581King": 983, "\u2581\u041f\u0440\u0438": 984, "\u2581M": 985, "\u2581article": 986, "\u2581\u0441\u0442\u0430\u0432": 987, "\u2581question": 988, "\u0441\u0442\u0438": 989, "\u2581\u0437\u0440\u043e\u0431\u0438\u0432": 990, "\u2581\u0441\u043f\u0440\u0430\u0432\u0434\u0456": 991, "\u2581\u0434\u0456\u0439\u0441\u043d\u043e": 992, "\u2581problems": 993, "\u2581known": 994, "\u0447\u0435": 995, "\u2581please": 996, "\u0414": 997, "\u2581once": 998, "\u258116": 999, "\u2581however": 1000, "\u2581lives": 1001, "\u2581\u0437\u043d\u0430\u0439\u0442\u0438": 1002, "\u2581\u043c\u0430\u0454\u043c\u043e": 1003, "\u2581small": 1004, "\u2581friends": 1005, "\u0430\u043b\u0438": 1006, "\u2581\u043e\u0434\u043d\u0430": 1007, "\u2581knowledge": 1008, "\u2581doesn": 1009, "\u2581\u0411\u043e\u0433\u043e\u043c": 1010, "\u2581\u043c\u0456\u0441\u0446\u0435": 1011, "\u0434\u0430": 1012, "\u2581\u0411\u043e\u0433\u043e\u0432\u0456": 1013, "\u0434\u0438": 1014, "\u0443\u044e\u0442\u044c": 1015, "en": 1016, "\u2581heard": 1017, "D": 1018, "\u0443\u0454": 1019, "\u0442\u0443": 1020, "\u2581Even": 1021, "\u2581mankind": 1022, "\u2581ways": 1023, "\u2581second": 1024, "\u2581light": 1025, "T": 1026, "\u2581women": 1027, "\u2581result": 1028, "\u2581T": 1029, "\u0434\u043e": 1030, "\u2581brother": 1031, "\u2581ago": 1032, "\u2581United": 1033, "\u25812.": 1034, "\u2581hear": 1035, "\u258117": 1036, "\u2581\u0446\u0456\u0439": 1037, "ers": 1038, "\u0443\u0432\u0430\u043b\u0438": 1039, "\u2581\u043f\u043e\u0442\u0456\u043c": 1040, "\u2581\u0432\u043e\u043d\u043e": 1041, "\u2581\u043f\u0438\u0442\u0430\u043d\u043d\u044f": 1042, "\u2581\u0445\u043e\u0442\u0456\u0432": 1043, "\u2581G": 1044, "\u2581nations": 1045, "\u2581won": 1046, "\u2581\u0438\u0437": 1047, "\u0410": 1048, "\u2581\u0443\u0441\u0456\u0445": 1049, "\u2581Lord": 1050, "\u2581\u0441\u043b\u043e\u0432\u043e": 1051, "\u258114": 1052, "\u2581speak": 1053, "\u2581makes": 1054, "\u2581knew": 1055, "\u2581\u044f\u043a\u0438\u043c": 1056, "\u2581close": 1057, "\u2581happened": 1058, "\u2581\u0441\u0430\u043c": 1059, "\u2581\u0436\u0438\u0442\u0438": 1060, "k": 1061, "\u2581\u043b\u0430\u0441\u043a\u0430": 1062, "\u2581eyes": 1063, "\u2581\u0441\u043f\u043e\u0441\u0456\u0431": 1064, "\u2581looking": 1065, "\u2581\u0427\u0435\u0440\u0435\u0437": 1066, "\u2581\u043c\u0430\u0439\u0436\u0435": 1067, "\u2581\u0434": 1068, "\u2581\u043d\u0430\u0448\u043e\u0433\u043e": 1069, "\u2581turn": 1070, "\u2581Please": 1071, "\u2581Jerusalem": 1072, "\u2581else": 1073, "\u2581move": 1074, "\u2581\u0457\u0439": 1075, "\u2581\u0426\u0430\u0440\u0441\u0442\u0432\u043e": 1076, "\u2581\u043a\u0456\u043b\u044c\u043a\u0456\u0441\u0442\u044c": 1077, "\u2581\u0437\u0432": 1078, "\u2581\u0404\u0433\u043e\u0432\u0443": 1079, "\u2581\u0411\u0456\u0431\u043b\u0456\u044e": 1080, "\u2581line": 1081, "\u2581Many": 1082, "\u2581answer": 1083, "\u2581car": 1084, "\u0448\u0435": 1085, "\u2581getting": 1086, "\u2581\u0445\u0440\u0438\u0441\u0442\u0438\u044f\u043d\u0438": 1087, "\u2581started": 1088, "\u2581Matthew": 1089, "\u2581following": 1090, "\u2581holy": 1091, "\u2581\u0443\u0441\u0456": 1092, "\u2581\u0442\u0440\u043e\u0445\u0438": 1093, "\u2581\u0434\u0443\u043c\u0430\u044e": 1094, "\u043d\u0438\u043c\u0438": 1095, "\u2581\u0445\u0442\u043e\u0441\u044c": 1096, "\u2581text": 1097, "\u2581\u043b\u044e\u0434\u0438\u043d\u0438": 1098, "\u2581\u043f\u043e\u0434": 1099, "\u043d\u044e": 1100, "\u2581sense": 1101, "\u2581\u0441\u0435\u0440\u0435\u0434": 1102, "\u2581faithful": 1103, "\u258113": 1104, "\u0456\u0457": 1105, "\u2581\u0426\u044f": 1106, "\u2581Of": 1107, "\u258140": 1108, "\u2581\u0431\u0456\u043b\u044c\u0448": 1109, "\u2581remember": 1110, "\u043c\u0456": 1111, "\u2581big": 1112, "4": 1113, "\u2581questions": 1114, "\u043b\u044e": 1115, "\u2581husband": 1116, "P": 1117, "\u2581Son": 1118, "\u2581\u0422\u043e": 1119, "\u2581\u043c\u043e\u044f": 1120, "\u2581\u0441\u043b\u0443\u0436\u0456\u043d\u043d\u044f": 1121, "\u2581land": 1122, "\u2581needed": 1123, "\u2581million": 1124, "\u2581side": 1125, "\u2581disciples": 1126, "\u2581kingdom": 1127, "\u2581\u0437\u0434\u043e\u0440\u043e\u0432": 1128, "\u2581Thank": 1129, "\u2581\u043d\u0430\u0440\u043e\u0434": 1130, "\u2581brought": 1131, "\u2581\u0411": 1132, "\u2581\u041c\u044b": 1133, "\u2581soon": 1134, "\u2581\u0414": 1135, "\u2581\u0437\u0430\u043f\u0438\u0442\u0430\u043d\u043d\u044f": 1136, "\u2581Go": 1137, "\u0430\u0442\u0438": 1138, "\u2581\u043a\u043e\u0442\u0440\u0456": 1139, "an": 1140, "\u2581E": 1141, "\u2581stop": 1142, "le": 1143, "\u2581\u0425\u0440\u0438\u0441\u0442\u043e\u0441": 1144, "\u258150": 1145, "\u2581idea": 1146, "\u2581head": 1147, "\u2581along": 1148, "\u2581percent": 1149, "\u2581share": 1150, "\u2581Yet": 1151, "\u2581Look": 1152, "\u2581000": 1153, "\u2581early": 1154, "\u2581\u0436\u0438\u0442\u0442\u0456": 1155, "\u044e\u0442\u044c": 1156, "\u2581sorry": 1157, "\u2581experience": 1158, "\u2581\u0445\u043e\u0447\u0435": 1159, "\u2581okay": 1160, "\u2581trying": 1161, "\u2581serve": 1162, "\u2581five": 1163, "\u2581list": 1164, "\u2581\u0441\u0442\u0430\u0442\u0438": 1165, "\u2581\u0440\u043e\u0431\u043e\u0442\u0443": 1166, "\u2581whether": 1167, "f": 1168, "\u2581toward": 1169, "\u2581preaching": 1170, "\u2581\u0431\u0440\u0430\u0442\u0438": 1171, "\u2581thinking": 1172, "\u2581language": 1173, "\u0443\u0432\u0430\u0432": 1174, "\u0412": 1175, "us": 1176, "\u2581control": 1177, "\u2581religion": 1178, "able": 1179, "\u2581taking": 1180, "\u2581\u043e\u0441\u043a\u0456\u043b\u044c\u043a\u0438": 1181, "\u2581certain": 1182, "\u2581An": 1183, "\u2581purpose": 1184, "\u2581\u0430\u0436": 1185, "\u2581needs": 1186, "\u043d\u043e\u0457": 1187, "\u2581\u043d\u0430\u0441\u043f\u0440\u0430\u0432\u0434\u0456": 1188, "\u2581comes": 1189, "\u2581present": 1190, "g": 1191, "\u2581\u0434\u0430\u0454": 1192, "\u2581personal": 1193, "\u2581Here": 1194, "\u2581\u0441\u043c\u0435\u0440\u0442\u0456": 1195, "\u2581\u043f\u0440\u043e\u0431\u043b\u0435\u043c\u0438": 1196, "\u2581\u0432\u0456\u0440\u0443": 1197, "\u2581\u0457\u0445\u043d\u0456": 1198, "\u2581country": 1199, "\u2581support": 1200, "\u2581friend": 1201, "\u0441\u0442\u044c": 1202, "\u2581\u0422\u0443\u0442": 1203, "\u2581\u0431\u043b\u0438\u0437\u044c\u043a\u043e": 1204, "\u2581\u0440\u0456\u043a": 1205, "\u2581felt": 1206, "\u258119": 1207, "\u2581lost": 1208, "\u0441\u0442\u0456": 1209, "\u0431\u0430": 1210, "u": 1211, "\u2581\u043e\u0431\u043e\u0432": 1212, "\u2581group": 1213, "\u2581\u0441\u043f\u0440\u0430\u0432\u0438": 1214, "\u2581\u0442\u0430\u043a\u0438\u043c": 1215, "\u2581law": 1216, "\u2581\u0434\u0456\u0442\u0438": 1217, "to": 1218, "\u2581U": 1219, "\u2581\u0445": 1220, "\u2581\u043f\u0440\u043e\u0442\u044f\u0433\u043e\u043c": 1221, "\u2581\u043c\u0430\u043b\u043e": 1222, "\u2581\u043e\u0442\u0440\u0438\u043c\u0430\u0442\u0438": 1223, "\u2581\u0443\u0432\u0430\u0433\u0443": 1224, "\u2581un": 1225, "\u0456\u044f": 1226, "\u2581humans": 1227, "M": 1228, "it": 1229, "\u2581Psalm": 1230, "\u2581consider": 1231, "\u2581age": 1232, "\u2581\u0456\u0441\u043d\u0443\u0454": 1233, "\u2581fear": 1234, "\u2581x": 1235, "\u25811,": 1236, "\u2581taken": 1237, "\u2581\u043c\u0438\u0440": 1238, "\u2581\u0432\u0430\u043c\u0438": 1239, "\u2581die": 1240, "\u2581\u0443\u0441\u0435": 1241, "\u2581died": 1242, "\u0422": 1243, "\u2581\u0411\u043e\u0436\u0438\u0439": 1244, "\u2581heaven": 1245, "\u2581talking": 1246, "\u2581\u0441\u0442\u0430\u0442\u0442\u0456": 1247, "\u0435\u0442": 1248, "\u2581ministry": 1249, "\u2581L": 1250, "\u2581\u043f\u043e\u0447\u0443\u0442\u0442\u044f": 1251, "\u2581\u0422\u043e\u043c\u0430": 1252, "\u2581value": 1253, "B": 1254, "\u2581\u0422\u0435": 1255, "\u2581alone": 1256, "\u25814.": 1257, "\u0432\u0456\u0434": 1258, "\u2581\u042f\u043a\u0456": 1259, "\u0430\u044e\u0442\u044c": 1260, "\u2581Good": 1261, "\u2581cause": 1262, "\u2581\u0413": 1263, "\u2581re": 1264, "\u2581working": 1265, "\u2581job": 1266, "\u2581\u043d\u0430\u043f\u0438\u0441\u0430\u0432": 1267, "\u2581\u0432\u0438\u0432\u0447\u0435\u043d\u043d\u044f": 1268, "\u2581shall": 1269, "\u2581\u043d\u0430\u0448\u0438\u0445": 1270, "on": 1271, "\u2581\u0434\u043d\u0456\u0432": 1272, "\u2581learned": 1273, "\u2581\u043a\u043e\u0436\u043d\u043e\u0433\u043e": 1274, "\u2581\u0447\u0442\u043e\u0431\u044b": 1275, "5": 1276, "\u2581\u043a\u0440\u0430\u0449\u0435": 1277, "\u0440\u043e": 1278, "\u2581self": 1279, "\u0446": 1280, "1": 1281, "\u2581\u041c": 1282, "\u2581marriage": 1283, "\u2581\u0434\u0443\u0445": 1284, "\u2581Get": 1285, "\u2581anyone": 1286, "\u0430\u043b\u0430": 1287, "\u2581Scriptures": 1288, "\u2581form": 1289, "\u2581history": 1290, "\u2581\u0412\u044b": 1291, "\u2581situation": 1292, "\u2581\u0441\u0442\u0430\u043b\u0438": 1293, "\u2581\u043e\u043d\u0430": 1294, "\u2581Or": 1295, "\u2581\u0434\u043e\u043c\u0443": 1296, "\u2581de": 1297, "\u2581sent": 1298, "\u2581large": 1299, "\u2581States": 1300, "\u2581\u0431\u0430\u0442\u044c\u043a\u0438": 1301, "\u0430\u0454": 1302, "\u2581\u0434\u0430\u043d\u0438\u0445": 1303, "\u2581Be": 1304, "\u2581\u043e\u0441\u043e\u0431\u043b\u0438\u0432\u043e": 1305, "\u0434\u0456": 1306, "\u2581account": 1307, "\u2581\u0411\u0430\u0433\u0430\u0442\u043e": 1308, "\u2581past": 1309, "Name": 1310, "\u2581play": 1311, "\u043b\u0443": 1312, "\u2581\u0441\u0435\u0440\u0446\u0435": 1313, "\u2581\u043f\u043e\u043a\u0430\u0437\u0443\u0454": 1314, "\u2581works": 1315, "\u2581\u041d\u0430\u043c": 1316, "\u2581\u0431\u0443\u0434\u0443": 1317, "\u2581\u0433\u0440\u043e\u0448\u0456": 1318, "\u2581Does": 1319, "\u2581\u0441\u0432\u043e\u0454\u0457": 1320, "\u2581ancient": 1321, "\u2581isn": 1322, "\u2581\u0437\u043e\u0432\u0441\u0456\u043c": 1323, "\u2581\u0433\u043e\u0432\u043e\u0440\u0438\u0442\u044c\u0441\u044f": 1324, "\u2581\u0440\u0435\u0447\u0456": 1325, "\u2581king": 1326, "\u2581\u043c\u043d\u043e\u044e": 1327, "\u2581continue": 1328, "\u2581write": 1329, "\u2581less": 1330, "\u2581Isaiah": 1331, "\u2581\u043b\u044e\u0434\u044c\u043c\u0438": 1332, "\u2581especially": 1333, "\u2581\u0456\u043d\u0448\u0438\u043c": 1334, "\u2581\u0437\u0435\u043c\u043b\u044e": 1335, "\u2581\u042f\u043a\u0438\u0439": 1336, "\u2581bit": 1337, "\u0449": 1338, "\u2581\u0441\u043b\u0443\u0436\u0438\u0442\u0438": 1339, "\u0441\u0443": 1340, "\u2581least": 1341, "\u0406": 1342, "\u043c\u0443\u0442\u044c": 1343, "\u2581\u043e\u0434\u043d\u0443": 1344, "\u2581room": 1345, "\u2581\u043c\u0430\u044e": 1346, "\u2581\u0440\u0456\u0448\u0435\u043d\u043d\u044f": 1347, "\u2581100": 1348, "\u2581\u043f\u043e\u043d\u0430\u0434": 1349, "\u2581stay": 1350, "R": 1351, "\u2581eat": 1352, "\u2581Have": 1353, "\u2581\u043f\u043e\u0447\u0430\u0442\u043a\u0443": 1354, "\u2581\u043f\u043e\u043a\u0438": 1355, "\u2581\u0440\u043e\u043a\u0438": 1356, "\u2581\u0437\u043d\u0430\u0454": 1357, "\u25813.": 1358, "\u2581\u0431\u0430\u0447\u0438\u0432": 1359, "\u2581\u043a\u043e\u0433\u043e": 1360, "\u2581kgm": 1361, "\u2581\u0440\u043e\u0431\u043e\u0442\u0438": 1362, "\u2581\u0441\u043a\u0430\u0437\u0430\u043b\u0430": 1363, "\u2581loving": 1364, "\u2581sin": 1365, "\u2581government": 1366, "\u2581\u043f\u043e\u0432\u0438\u043d\u0435\u043d": 1367, "\u2581giving": 1368, "\u2581servants": 1369, "\u2581\u043d\u0435\u0442": 1370, "\u2581\u043f\u0440\u0430\u0432\u0434\u0430": 1371, "z": 1372, "\u2581\u0432\u0430\u0436\u043a\u043e": 1373, "h": 1374, "\u2581*.": 1375, "\u2581helped": 1376, "\u2581Since": 1377, "\u2581\u043a\u043e\u0436\u0435\u043d": 1378, "\u2581\u043f\u043e\u0431\u0430\u0447\u0438\u0442\u0438": 1379, "?\"": 1380, "\u2581\u0425\u043e\u0447\u0430": 1381, "\u2581girl": 1382, "\u2581'.": 1383, "\u2581\u0445\u0440\u0438\u0441\u0442\u0438\u044f\u043d": 1384, "\u043d\u043e\u044e": 1385, "\u2581almost": 1386, "\u2581m": 1387, "\u2581\u043e\u0441\u0456\u0431": 1388, "\u0434\u0443": 1389, "\u2581special": 1390, "\u2581\u0447\u043e\u043b\u043e\u0432\u0456\u043a\u0430": 1391, "\u2581type": 1392, "\u25818.": 1393, "\u2581myself": 1394, "\u2581\u0434\u0432\u043e\u0445": 1395, "\u2581\u0441\u043b\u043e\u0432\u0430\u043c\u0438": 1396, "\u2581clear": 1397, "\u2581\u0441\u043c\u0435\u0440\u0442\u044c": 1398, "\u2581area": 1399, "\u2581nor": 1400, "\u25813,": 1401, "ar": 1402, "\u2581health": 1403, "\u041f": 1404, "\u258122": 1405, "\u2581\u0414\u043e\u0431\u0440\u0435": 1406, "\u2581\u0421\u043b\u043e\u0432\u043e": 1407, "\u2581\u0434\u043d\u0456": 1408, "\u2581\u0433\u043e\u0432\u043e\u0440\u0438\u0442\u0438": 1409, "\u2581\u0411\u0443\u0434\u044c": 1410, "\u2581Thus": 1411, "\u2581\u0437\u043d\u0430\u0442\u0438": 1412, "\u2581action": 1413, "\u2581itself": 1414, "\u2581\u0413\u043e\u0441\u043f\u043e\u0434\u044c": 1415, "\u2581\u041e\u0434\u0438\u043d": 1416, "\u2581\u0441\u0432\u043e\u0454\u043c\u0443": 1417, "\u2581\u043a\u0440\u043e\u0432": 1418, "\u2581relationship": 1419, "ness": 1420, "\u2581difficult": 1421, "\u2581kill": 1422, "\u2581\u043a\u043e\u043b\u0438\u0441\u044c": 1423, "\u2581R": 1424, "\u2581hands": 1425, "\u2581\u043d\u0430\u043f\u0440\u0438\u043a\u043b\u0430\u0434": 1426, "w": 1427, "man": 1428, "\u2581\u0437\u043d\u0430\u0432": 1429, "\u2581\u0437\u0430\u0432\u0434\u044f\u043a\u0438": 1430, "\u2581\u0441\u0435\u0440\u0446\u044f": 1431, "\u2581within": 1432, "\u2581\u041d\u0430\u0432\u0456\u0442\u044c": 1433, "\u2581\u0441\u043e\u0431\u043e\u044e": 1434, "\u2581fellow": 1435, "\u2581joy": 1436, "\u2581\u0437\u043c\u0456\u043d\u0438": 1437, "\u2581key": 1438, "\u2581run": 1439, "\u2581\u044f\u043a\u043e\u0457": 1440, "\u2581\u0431\u0430\u0447\u0438\u0442\u0438": 1441, "\u2581\u043f\u0440\u043e\u0433\u0440\u0430\u043c\u0438": 1442, "\u2581longer": 1443, "\u2581half": 1444, "\u0301": 1445, "\u2581shows": 1446, "\u2581\u0442\u043e\u0431\u0442\u043e": 1447, "\u2581local": 1448, "\u0432\u0435\u0440": 1449, "\u2581\u0422\u0430\u043a\u043e\u0436": 1450, "\u2581attention": 1451, "\u258112:": 1452, "\u2581\u0434\u0443\u043c\u043a\u0443": 1453, "\u2581W": 1454, "\u2581heavenly": 1455, "\u043d\u0456\u0441\u0442\u044c": 1456, "\u2581\u0431\u0443\u0434\u0435\u043c\u043e": 1457, "\u2581\u0437\u043d\u0430\u043d\u043d\u044f": 1458, "\u0441\u0438": 1459, "\u2581\u043c\u0435\u043d\u044e": 1460, "\u2581members": 1461, "\u0435\u0446\u044c": 1462, "\u2581H": 1463, "\u2581\u0432\u0456\u043a\u043d\u043e": 1464, "\u2581trust": 1465, "\u2581teaching": 1466, "\u2581\u043f\u043e\u0447\u0430\u0432": 1467, "\u2581window": 1468, "\u0447\u0438\u043d": 1469, "\u2581\u0432\u0456\u0439\u043d\u0438": 1470, "\u2581\u0440\u0456\u0437\u043d\u0438\u0445": 1471, "\u2581near": 1472, "\u2581\u0437\u0431\u043e\u0440\u0443": 1473, "\u2581available": 1474, "\u0441\u0430": 1475, "\u2581\u043c\u0430\u0431\u0443\u0442\u044c": 1476, "\u2581\u0431\u0456\u0431\u043b\u0456\u0439\u043d\u0456": 1477, "\u2581door": 1478, "\u2581\u0437\u0440\u043e\u0437\u0443\u043c\u0456\u0442\u0438": 1479, "\u258121": 1480, "\u0433\u0430": 1481, "\u2581married": 1482, "\u2581\u0442\u0430\u043a\u043e\u0433\u043e": 1483, "\u2581\u043c\u0456\u0441\u0442\u0430": 1484, "ation": 1485, "\u2581\u0431\u044b\u043b": 1486, "\u2581\u0432\u0438\u043a\u043e\u0440\u0438\u0441\u0442\u043e\u0432\u0443\u0432\u0430\u0442\u0438": 1487, "\u2581\u0433\u043e": 1488, "\u0432\u0430\u043b\u0438": 1489, "\u2581rather": 1490, "\u2581\u043e\u0434\u043d\u0435": 1491, "\u2581Will": 1492, "\u2581reading": 1493, "\u2581\u043d\u0430\u043c\u0438": 1494, "\u2581hold": 1495, "U": 1496, "\u2581six": 1497, "\u2581including": 1498, "\u2581according": 1499, "\u2581\u043a\u043e\u043c\u043f": 1500, "\u2581\u0440\u043e\u0431\u0438\u0442\u044c": 1501, "\u2581wants": 1502, "\u2581\u0442\u0430\u043a\u0430": 1503, "\u2581\u0404": 1504, "\u2581c": 1505, "\u2581countries": 1506, "\u2581\u043f\u043e\u0447\u0430\u043b\u0438": 1507, "\u2581\u0422\u0430\u043c": 1508, "\u25815.": 1509, "\u2581Moses": 1510, "\u2581Dr": 1511, "\u2581\u0421\u0428\u0410": 1512, "\u2581church": 1513, "\u2581Jews": 1514, "\u2581happen": 1515, "\u2581months": 1516, "\u0441\u0442\u043e": 1517, "\u2581prayer": 1518, "\u2581wisdom": 1519, "\u0432\u0456": 1520, "\u2581states": 1521, "\u2581\u0441\u0438\u0441\u0442\u0435\u043c\u0438": 1522, "\u2581Greek": 1523, "\u2581\u0434\u043e\u0441\u0438\u0442\u044c": 1524, "\u2581elders": 1525, "\u2581\u0444\u0430\u0439\u043b": 1526, "\u2581easy": 1527, "v": 1528, "\u2581stand": 1529, "\u2581wait": 1530, "\u0411": 1531, "\u2581\u0417\u0432\u0438\u0447\u0430\u0439\u043d\u043e": 1532, "\u2581enjoy": 1533, "\u2581state": 1534, "\u2581\u043d\u0430\u0439": 1535, "\u2581ready": 1536, "\u2581strong": 1537, "\u2581Mr": 1538, "\u0442\u0435\u0440": 1539, "\u2581guy": 1540, "\u2581meet": 1541, "\u258110:": 1542, "\u2581\u0435\u0441\u0442\u044c": 1543, "\u2581simply": 1544, "\u2581See": 1545, "\u2581either": 1546, "\u2581ourselves": 1547, "\u2581follow": 1548, "\u2581hours": 1549, "\u2581\u041d\u0421": 1550, "\u2581Would": 1551, "\u2581\u0434\u0432\u0456": 1552, "\u2581everyone": 1553, "\u2581\u0421\u044c\u043e\u0433\u043e\u0434\u043d\u0456": 1554, "\u2581morning": 1555, "\u2581\u0440\u0430\u043d\u0456\u0448\u0435": 1556, "\u2581\u0456\u043d\u0448\u0438\u043c\u0438": 1557, "\u2581\u0415": 1558, "\u0444": 1559, "\u2581perfect": 1560, "\u2581\u043d\u0430\u0448\u0435": 1561, "\u0446\u044f": 1562, "\u25817:": 1563, "\u25812,": 1564, "\u2581\u0448\u0432\u0438\u0434\u043a\u043e": 1565, "\u2581wicked": 1566, "F": 1567, "\u2581Those": 1568, "\u2581\u043f\u0440\u0430\u0432\u0434\u0443": 1569, "O": 1570, "\u2581thus": 1571, "\u043a\u043e\u043c": 1572, "\u2581\u0441\u0430\u043c\u0456": 1573, "\u0438\u043b\u0430": 1574, "\u2581\u043f\u043e\u0432\u0456\u0434\u043e\u043c\u043b\u0435\u043d\u043d\u044f": 1575, "\u2581public": 1576, "\u2581rest": 1577, "\u0440\u0430": 1578, "\u2581feet": 1579, "\u2581probably": 1580, "\u2581\u0431\u0430\u0442\u044c\u043a\u0456\u0432": 1581, "\u2581Revelation": 1582, "\u2581\u041c\u043e\u0436\u043b\u0438\u0432\u043e": 1583, "\u2581X": 1584, "\u2581Right": 1585, "\u0441\u0442\u0432\u043e": 1586, "\u2581\u0441\u0432\u043e\u0457\u043c\u0438": 1587, "\u258128": 1588, "\u2581\u0444\u0430\u0439\u043b\u0430": 1589, "\u258111:": 1590, "\u2581lead": 1591, "\u2581\u0431\u0440\u0430\u0442": 1592, "\u2581\u0441\u043a\u0430\u0437\u0430\u043d\u043e": 1593, "\u258110.": 1594, "\u2581\u0434\u043e\u043f\u043e\u043c\u043e\u0436\u0435": 1595, "\u2581\u0441\u043f\u0438\u0441\u043a\u0443": 1596, "\u2581maybe": 1597, "is": 1598, "\u0430\u0439\u0442\u0435": 1599, "\u2581\u0437\u043d\u0430\u0454\u0442\u0435": 1600, "\u041a": 1601, "\u2581\u043d\u0435\u044e": 1602, "\u2581\u0442\u0430\u043a\u0443": 1603, "\u0447\u0430": 1604, "\u2581received": 1605, "\u2581\u0442\u0443": 1606, "\u2581files": 1607, "G": 1608, "\u0440\u0435": 1609, "\u2581knows": 1610, "\u2581above": 1611, "\u0437\u043d\u0430": 1612, "\u2581\u0432\u0430\u0448": 1613, "\u043e\u0439": 1614, "\u2581common": 1615, "\u2581\u041c\u0435\u043d\u0435": 1616, "\u25818,": 1617, "\u2581N": 1618, "\u2581\u0445\u043e\u0447\u0430": 1619, "\u2581\u0432\u043e\u0434\u0438": 1620, "\u2581\u0441\u0438\u043b\u0443": 1621, "ion": 1622, "\u2581J": 1623, "\u2581written": 1624, "\u258124": 1625, "\u2581Like": 1626, "\u2581\u0437\u043c\u0456\u043d\u0438\u0442\u0438": 1627, "\u2581\u0442\u0430\u043a\u0438": 1628, "\u2581command": 1629, "\u2581moved": 1630, "\u2581further": 1631, "\u2581Although": 1632, "\u2581boy": 1633, "\u2581\u0437\u0434\u0435\u0441\u044c": 1634, "\u2581Luke": 1635, "\u2581\u043b\u0435\u0433\u043a\u043e": 1636, "\u2581\u0447\u0430\u0441\u043e\u043c": 1637, "\u2581meetings": 1638, "\u043e\u0432\u0430": 1639, "\u2581pay": 1640, "\u2581wasn": 1641, "\u0441\u0456": 1642, "\u2581righteous": 1643, "\u2581gives": 1644, "\u043d\u0438\u043a": 1645, "\u2581likely": 1646, "\u2581People": 1647, "\u2581\u0437\u0434\u0430\u0454\u0442\u044c\u0441\u044f": 1648, "\u2581\u0431\u0430\u0442\u044c\u043a\u043e": 1649, "\u2581nation": 1650, "\u2581\u043a\u0440\u0430\u0457\u043d\u0430\u0445": 1651, "\u2581provide": 1652, "\u2581\u043c\u043e\u0457": 1653, "\u2581\u0435\u0441\u043b\u0438": 1654, "\u2581\u0440\u0456\u0447": 1655, "\u2581based": 1656, "\u0435\u0439": 1657, "\u2581counsel": 1658, "\u2581respect": 1659, "\u2581tried": 1660, "\u2581desire": 1661, "\u2581business": 1662, "\u2581false": 1663, "\u2581\u043d\u0430\u0437\u0430\u0434": 1664, "\u2581\u044f\u043a\u0456\u0439": 1665, "\u2581killed": 1666, "\u2581evidence": 1667, "\u2581\u0429\u0435": 1668, "\u0430\u044e": 1669, "\u2581field": 1670, "\u2581\u0441\u0438\u043d": 1671, "\u2581\u0434\u0435\u043a\u0456\u043b\u044c\u043a\u0430": 1672, "\u2581\u041a\u0430\u043a": 1673, "\u2581\u0440\u0430\u0437\u0443": 1674, "\u2581return": 1675, "\u2581\u0443\u0447\u0430\u0441\u0442\u044c": 1676, "\u2581\u0434\u0430\u0442\u0438": 1677, "\u2581equal": 1678, "\u0431\u0456": 1679, "\u043e\u043d": 1680, "\u2581fire": 1681, "\u2581image": 1682, "\u2581involved": 1683, "\u2581rule": 1684, "\u2581current": 1685, "\u2581According": 1686, "\u2581THE": 1687, "\u2581\u0414\u0430\u0432\u0438\u0434": 1688, "\u2581choose": 1689, "\u2581interest": 1690, "\u2581\u0414\u044f\u043a\u0443\u044e": 1691, "\u2581\u0432\u0430\u0440\u0442\u043e": 1692, "\u2581act": 1693, "\u043c\u0456\u043d": 1694, "\u2581avoid": 1695, "\u2581\u0440\u0435": 1696, "\u2581beautiful": 1697, "\u2581certainly": 1698, "\u25816.": 1699, "\u2581data": 1700, "\u2581\u0422\u0456": 1701, "\u2581\u044f\u043a\u0438\u043c\u0438": 1702, "\u0441\u0442": 1703, "\u2581report": 1704, "\u2581ten": 1705, "\u2581Ctrl": 1706, "\u043a\u0456\u0432": 1707, "\u0447\u0443": 1708, "\u2581force": 1709, "\u2581\u0441\u0442\u0430\u043d": 1710, "\u2581walk": 1711, "\u2581\u043f\u0456\u0437\u043d\u0456\u0448\u0435": 1712, "\u2581Line": 1713, "\u043a\u0430\u043c\u0438": 1714, "\u2581\u0431\u0430\u0436\u0430\u043d\u043d\u044f": 1715, "ur": 1716, "\u2581color": 1717, "\u0441\u0442\u0430": 1718, "\u2581KDE": 1719, "\u2581\u043d\u0456\u0445\u0442\u043e": 1720, "\u25817.": 1721, "\u2581Creator": 1722, "\u2581changed": 1723, "\u2581\u043c\u043e\u0436\u043b\u0438\u0432\u0456\u0441\u0442\u044c": 1724, "\u2581inside": 1725, "\u2581similar": 1726, "\u2581temple": 1727, "\u2581\u0431\u044b\u043b\u043e": 1728, "\u2581!": 1729, "\u2581\u043f\u043e\u0441\u0442\u0456\u0439\u043d\u043e": 1730, "\u2581While": 1731, "\u2581guys": 1732, "\u2581\u043e\u0434\u043d\u0438\u043c": 1733, "\u0456\u044e": 1734, "\u2581\u043f\u043e\u043a\u043b\u043e\u043d\u0456\u043d\u043d\u044f": 1735, "\u2581goes": 1736, "\u0423": 1737, "\u043d\u044c": 1738, "\u2581week": 1739, "\u2581\u0430\u043f\u043e\u0441\u0442\u043e\u043b": 1740, "\u2581\u043f\u0440\u0438\u0431\u043b\u0438\u0437\u043d\u043e": 1741, "\u2581\u0432\u0456\u043a\u043d\u0430": 1742, "\u2581\u0420\u043e\u0437": 1743, "\u2581\u0432\u0438\u043a\u043e\u043d\u0443\u0432\u0430\u0442\u0438": 1744, "\u2581Proverbs": 1745, "\u2581anointed": 1746, "\u2581i": 1747, "\u2581game": 1748, "\u2581\u0437\u0430\u043a\u043e\u043d": 1749, "\u2581\u041f\u0435\u0440\u0435": 1750, "\u2581box": 1751, "\u2581\u0456\u0441\u0442\u043e\u0440\u0456\u0457": 1752, "\u2581quite": 1753, "\u2581Today": 1754, "\u2581born": 1755, "\u2581\u0443\u0432\u0430\u0433\u0438": 1756, "\u2581\u0437\u043e\u0431\u0440\u0430\u0436\u0435\u043d\u043d\u044f": 1757, "\u2581position": 1758, "\u0435\u043d\u044c": 1759, "\u2581\u0432\u0456\u0434\u043f\u043e\u0432\u0456\u0434\u044c": 1760, "\u0449\u0430": 1761, "\u2581\u043f\u0443\u043d\u043a\u0442": 1762, "L": 1763, "\u2581\u043f\u043e\u0434\u043e\u0431\u0430\u0454\u0442\u044c\u0441\u044f": 1764, "\u2581serious": 1765, "\u2581\u043c\u043e\u0433\u043e": 1766, "\u2581\u043a\u043e\u0433\u0434\u0430": 1767, "\u2581single": 1768, "\u2581\u041f\u0440\u043e\u0441\u0442\u043e": 1769, "\u044f\u0442": 1770, "\u2581feelings": 1771, "\u2581\u043f\u043e\u0440\u0430\u0434\u0438": 1772, "\u2581Israelites": 1773, "\u2581class": 1774, "\u2581\u0442\u043e\u0431\u043e\u044e": 1775, "\u2581therefore": 1776, "\u2581#": 1777, "\u2581Adam": 1778, "\u258160": 1779, "\u258133": 1780, "\u2581\u041e\u043d\u0430": 1781, "\u2581baby": 1782, "\u2581%": 1783, "\u2581Great": 1784, "\u2581\u0431\u0456\u043b\u044c\u0448\u0456\u0441\u0442\u044c": 1785, "\u2581\u0433\u043e\u0432\u043e\u0440\u0438\u0432": 1786, "\u0430\u043d\u043d\u044f": 1787, "\u2581option": 1788, "\u2581listen": 1789, "\u2581\u0434\u043e\u043f\u043e\u043c\u0430\u0433\u0430\u0454": 1790, "\u2581\u0431\u0440\u0430\u0442\u0456\u0432": 1791, "\u25814,": 1792, "\u258112.": 1793, "\u2581sound": 1794, "\u2581\u0441\u0442\u0430\u043b\u043e\u0441\u044f": 1795, "\u2581Maybe": 1796, "\u2581\u0457\u0445\u043d\u0456\u0445": 1797, "\u2581\u0432\u0430\u0448\u0456": 1798, "\u2581seem": 1799, "\u2581n": 1800, "\u258113:": 1801, "\u2581\u0432\u0441\u0451": 1802, "\u0434\u0435": 1803, "\u2581\u0434\u0435\u044f\u043a\u0438\u0445": 1804, "\u25819.": 1805, "\u2581modern": 1806, "\u2581kept": 1807, "\u043d\u0456\u0439": 1808, "\u2581\u043f\u0440\u0430\u0446\u0456": 1809, "\u0442\u0432\u043e\u0440": 1810, "\u0435\u043b\u044c": 1811, "\u043f\u0440\u043e": 1812, "\u2581\u043c\u0430\u043b\u0430": 1813, "\u2581entire": 1814, "\u2581\u0441\u0438\u043b\u0438": 1815, "\u2581\u0434\u0430": 1816, "\u2581\u0413\u043e\u0441\u043f\u043e\u0434\u0430": 1817, "\u2581\u0440\u0456\u0437\u043d\u0456": 1818, "\u2581receive": 1819, "\u2581couple": 1820, "\u2581baptized": 1821, "\u2581\u043e\u0434\u043d\u043e\u043c\u0443": 1822, "\u25815,": 1823, "\u2581gone": 1824, "\u043b\u0435": 1825, "\u2581several": 1826, "\u2581\u043c\u0456\u043b\u044c\u0439\u043e\u043d\u0456\u0432": 1827, "\u2581deal": 1828, "\u0417": 1829, "\u2581changes": 1830, "\u2581\u0430\u043d\u0456": 1831, "\u2581\u0431\u044b\u0442\u044c": 1832, "\u2581taught": 1833, "\u2581conduct": 1834, "\u0439\u0442\u0435": 1835, "\u2581seems": 1836, "\u2581\u0441\u043b\u0456\u0432": 1837, "\u2581promise": 1838, "\u2581Watchtower": 1839, "\u2581\u0436\u0456\u043d\u043a\u0430": 1840, "\u2581\u043d\u0430\u0434\u0456\u044e": 1841, "\u2581\u043f\u043e\u0432\u043d\u0456\u0441\u0442\u044e": 1842, "\u2581selected": 1843, "\u2581soul": 1844, "\u0433\u0443": 1845, "\u2581\u0437\u043d\u0430\u0454\u0448": 1846, "\u2581\u043b\u044e\u0434\u0441\u0442\u0432\u0430": 1847, "\u2581\u043f\u0440\u0430\u0446\u044e\u0432\u0430\u0442\u0438": 1848, "\u2581\u0437\u0456\u0431\u0440\u0430\u043d\u043d\u044f": 1849, "\u041e": 1850, "\u2581Corinthians": 1851, "\u0438\u0432\u0441\u044f": 1852, "\u0454\u0442\u044c\u0441\u044f": 1853, "\u2581\u0432\u0435\u043b\u0438\u043a\u0438\u0439": 1854, "\u2581\u043c\u0443": 1855, "\u2581save": 1856, "\u2581behind": 1857, "\u2581letter": 1858, "\u2581\u043b\u044e\u0431\u043e\u0432\u0456": 1859, "\u2581met": 1860, "\u2581\u042f\u043a\u0430": 1861, "\u2581\u0437\u043d\u0430\u0447\u0438\u0442\u044c": 1862, "\u0442\u0438\u0441\u044f": 1863, "\u2581wise": 1864, "\u041c": 1865, "\u0443\u044e\u0447\u0438": 1866, "\u2581program": 1867, "\u2581\u0414\u0430\u0432\u0430\u0439": 1868, "\u258123": 1869, "\u2581\u043f\u0440\u0430\u0432\u0434\u0438": 1870, "\u2581\u0449\u0430\u0441\u0442\u044f": 1871, "\u2581\u041e\u0441\u043a\u0456\u043b\u044c\u043a\u0438": 1872, "\u258131": 1873, "\u2581Roman": 1874, "\u2581\u044f\u043a\u043e\u044e": 1875, "\u2581\u0432\u0456\u0434\u0431\u0443\u0432\u0430\u0454\u0442\u044c\u0441\u044f": 1876, "\u2581source": 1877, "\u2581Timothy": 1878, "You": 1879, "\u2581short": 1880, "\u2581suffering": 1881, "\u043c\u0430\u043d": 1882, "\u2581\u043f\u043e\u0433\u043b\u044f\u0434": 1883, "\u2581effect": 1884, "\u2581loved": 1885, "\u0430\u043d\u0433\u043b": 1886, "\u2581greater": 1887, "\u2581\u0437\u043d\u0430\u0454\u043c\u043e": 1888, "\u2581building": 1889, "\u0448\u0430": 1890, "\u2581\u0437\u0430\u0432\u0434\u0430\u043d\u043d\u044f": 1891, "\u2581divine": 1892, "\u0447\u0456": 1893, "\u2581\u0432\u0456\u0434\u0441\u043e\u0442\u043a\u0456\u0432": 1894, "\u2581teach": 1895, "\u2581\u043f\u0440\u043e\u0433\u0440\u0430\u043c\u0430": 1896, "\u2581button": 1897, "\u2581benefit": 1898, "\u2581French": 1899, "\u2581sister": 1900, "\u2581\u0456\u043d\u0448\u043e\u0433\u043e": 1901, "\u2581\u0441\u043a\u0456\u043b\u044c\u043a\u0438": 1902, "\u2581\u041c\u043d\u0435": 1903, "\u258114.": 1904, "\u0438\u0442\u044c\u0441\u044f": 1905, "\u2581\u043f\u0440\u0438\u0439\u0434\u0435": 1906, "\u258111.": 1907, "\u2581\u043d\u0430\u0448\u0443": 1908, "\u0446\u0456\u0432": 1909, "\u2581perhaps": 1910, "\u258132": 1911, "\u2581story": 1912, "\u2581\u0412\u0456\u0434\u043e\u043c\u043e\u0441\u0442\u0456": 1913, "\u2581\u043a\u0456\u043d\u0446\u044f": 1914, "\u2581Credit": 1915, "\u2581material": 1916, "\u2581created": 1917, "\u2581takes": 1918, "\u2581\u043f\u0440\u0430\u0432\u0438\u043b\u044c\u043d\u043e": 1919, "\u0430\u0442\u044c": 1920, "\u258170": 1921, "\u2581Re": 1922, "\u2581Acts": 1923, "\u2581\u0441\u0442\u0430\u0454": 1924, "\u2581Such": 1925, "\u2581period": 1926, "\u2581\u0441\u0442\u0430\u043b\u0430": 1927, "\u0432\u043e": 1928, "\u2581shown": 1929, "\u2581\u0437\u0433\u0456\u0434\u043d\u043e": 1930, "\u2581Catholic": 1931, "\u2581\u043d\u0430\u0432\u0447\u0430\u043d\u043d\u044f": 1932, "\u2581Their": 1933, "\u2581\u0445\u043e\u0447": 1934, "\u2581\u0432\u0438\u043f\u0430\u0434\u043a\u0443": 1935, "\u2581build": 1936, "\u2581\u043c\u043e\u0433\u043b\u0430": 1937, "\u2581James": 1938, "\u2581Show": 1939, "\u2581\u0434\u043e\u0434\u043e\u043c\u0443": 1940, "\u043b\u0435\u043d": 1941, "\u2581top": 1942, "\u2581\u0441\u0432\u043e\u0457\u0439": 1943, "\u2581\u043d\u043e\u0432\u0438\u0439": 1944, "\u2581\u0412\u0430\u043c": 1945, "\u2581\u0440\u0443\u043a\u0438": 1946, "\u2581per": 1947, "\u2581\u0432\u0441\u044c\u043e\u0433\u043e": 1948, "\u2581matters": 1949, "\u2581space": 1950, "\u0444\u0456": 1951, "\u2581Job": 1952, "\u2581happiness": 1953, "\u0443\u044e": 1954, "\u2581\u043f\u0440\u0438\u0439\u0448\u043e\u0432": 1955, "\u2581organization": 1956, "\u0454\u043c": 1957, "\u2581\u0432\u0438\u044f\u0432\u043b\u044f\u0442\u0438": 1958, "\u2581\u043c\u043e\u0454": 1959, "\u2581\u0434\u0430\u043d\u0456": 1960, "\u2581music": 1961, "\u2581lived": 1962, "\u0430\u044e\u0447\u0438": 1963, "\u2581showed": 1964, "\u2581English": 1965, "\u2581political": 1966, "\u2581\u0424": 1967, "\u2581\u0442\u043e\u0447\u043d\u043e": 1968, "\u2581\u0432\u0434\u0430\u043b\u043e\u0441\u044f": 1969, "\u2581late": 1970, "\u2581outside": 1971, "\u25816,": 1972, "\u0437\u0456": 1973, "\u2581\u043d\u0435\u043e\u0431\u0445\u0456\u0434\u043d\u043e": 1974, "\u2581physical": 1975, "\u0440\u0430\u043d": 1976, "\u2581dialog": 1977, "H": 1978, "\u0413": 1979, "un": 1980, "\u2581pretty": 1981, "\u2581Footnote": 1982, "\u0443\u0432\u0430\u043b\u0430": 1983, "\u2581p": 1984, "\u2581issue": 1985, "\u0440\u043e\u0434": 1986, "\u2581magazine": 1987, "\u043e\u0431": 1988, "\u2581\u043d\u0430\u0448\u0430": 1989, "\u2581\u0432\u0430\u0436\u043b\u0438\u0432\u043e": 1990, "el": 1991, "\u2581\u0444\u0430\u0439\u043b\u0456\u0432": 1992, "\u2581meeting": 1993, "\u2581\u043d\u0456\u0431\u0438": 1994, "\u0432\u0430\u0432": 1995, "\u2581looks": 1996, "\u2581\u043f\u0435\u0440\u0448\u0435": 1997, "\u2581\u0422": 1998, "\u2581\u0456\u043d\u0448\u0438\u0439": 1999, "\u2581Abraham": 2000, "\u2581turned": 2001, "\u2581\u043e\u0441\u043e\u0431\u0438": 2002, "\u25818:": 2003, "\u2581cut": 2004, "\u2581Dur": 2005, "\u2581poor": 2006, "\u2581\u043c\u043e\u0432\u043e\u044e": 2007, "\u2581\u0434\u0443\u043c\u043a\u0438": 2008, "\u2581deep": 2009, "\u2581\u0441\u0432\u043e\u0454\u044e": 2010, "\u043b\u0438\u0441\u044c": 2011, "\u2581sleep": 2012, "\u2581\u043c\u0456\u0441\u0446\u044f": 2013, "\u2581\u043d\u0430\u0441\u0442\u0456\u043b\u044c\u043a\u0438": 2014, "\u2581\u043a\u0440\u043e\u0432\u0456": 2015, "\u2581\u043c\u043e\u044e": 2016, "\u044e\u0447\u0438": 2017, "\u0430\u0439": 2018, "\u2581wonder": 2019, "\u2581\u0442\u043e\u043b\u044c\u043a\u043e": 2020, "8": 2021, "\u2581\u0437\u0431\u043e\u0440\u0456": 2022, "\u2581natural": 2023, "\u2581\u0447\u043e\u0442\u0438\u0440\u0438": 2024, "\u0433\u0438": 2025, "\u0442\u0440\u0438": 2026, "\u2581attitude": 2027, "\u258115.": 2028, "\u2581prophecy": 2029, "\u2581\u043b\u0438": 2030, "\u2581\u043c\u043e\u0436\u0435\u0448": 2031, "7": 2032, "\u2581allow": 2033, "\u2581books": 2034, "\u2581Un": 2035, "\u2581sea": 2036, "\u2581\u041f\u0435\u0442\u0440\u043e": 2037, "\u2581\u0433\u0440\u043e\u0448\u0435\u0439": 2038, "\u2581simple": 2039, "\u2581\u0432\u0430\u0448\u043e\u0433\u043e": 2040, "\u0432\u0435": 2041, "\u25819,": 2042, "\u2581First": 2043, "\u2581\u043f\u043e\u043a\u0430\u0437\u0430\u043d\u043e": 2044, "\u2581\u0441\u0442\u043e\u043b\u0456\u0442\u0442\u044f": 2045, "\u2581prophet": 2046, "\u2581serving": 2047, "\u043a\u0435": 2048, "\u2581\u041b\u044e\u0434\u0438": 2049, "\u2581sort": 2050, "\u2581truly": 2051, "\u00b7": 2052, "\u2581whose": 2053, "\u2581negative": 2054, "K": 2055, "\u258116.": 2056, "\u2581\u043c\u043e\u0433\u0443": 2057, "ra": 2058, "\u2581b": 2059, "\u258113.": 2060, "ri": 2061, "\u2581f": 2062, "\u2581seven": 2063, "\u2581\u0414\u0435\u044f\u043a\u0456": 2064, "\u2581address": 2065, "\u2581\u0432\u0456\u0440\u0438": 2066, "\u2581buy": 2067, "\u2581\u0413\u0430\u0440\u0430\u0437\u0434": 2068, "\u2581V": 2069, "\u2581speaking": 2070, "\u2581forever": 2071, "\u0441\u0442\u0432\u0430": 2072, "\u2581forth": 2073, "\u2581\u0441\u044e\u0434\u0438": 2074, "\u2581miles": 2075, "\u2581\u043e\u043d\u0438": 2076, "\u0441\u0442\u044e": 2077, "\u2581York": 2078, "\u2581\u041e\u0442\u043e\u0436": 2079, "\u2581\u041f\u043e\u0442\u0456\u043c": 2080, "\u2581fully": 2081, "\u2581persons": 2082, "\u2581\u0440\u0430\u0437\u0456\u0432": 2083, "\u2581\u0440\u0430\u0434\u0456\u0441\u0442\u044c": 2084, "\u2581\u0440\u0435\u043b\u0456\u0433\u0456\u0457": 2085, "\u2581tree": 2086, "\u2581Law": 2087, "\u2581sometimes": 2088, "\u2581\u0411\u0435\u0437": 2089, "\u2581\u043d\u0430\u0441\u043a\u0456\u043b\u044c\u043a\u0438": 2090, "\u2581meaning": 2091, "\u2581check": 2092, "\u2581\u0421\u0430\u0442\u0430\u043d\u0430": 2093, "\u2581\u0425\u0456\u0431\u0430": 2094, "\u0440\u0443": 2095, "\u258115,": 2096, "\u2581resurrection": 2097, "\u2581righteousness": 2098, "\u2581\u043c\u0456\u0441\u0442\u043e": 2099, "\u2581Most": 2100, "\u2581remain": 2101, "\u2581Take": 2102, "\u2581\u0445\u043e\u0442\u0456\u043b\u0438": 2103, "\u2581\u0421\u0438\u043d": 2104, "\u2581\u0448\u043b\u044f\u0445": 2105, "and": 2106, "\u2581create": 2107, "\u2581\u043d\u0430\u0440\u043e\u0434\u0443": 2108, "\u2581Daniel": 2109, "\u2581date": 2110, "\u2581\u0436\u0456\u043d\u043a\u0438": 2111, "6": 2112, "\u2581drink": 2113, "\u2581\u0431\u0443\u0434\u0435\u0442\u0435": 2114, "\u2581\u0442\u0438\u0441\u044f\u0447": 2115, "\u2581principles": 2116, "\u2581menu": 2117, "\u2581wonderful": 2118, "\u0432\u0456\u0440": 2119, "\u2581\u0441\u0443\u0434": 2120, "\u2581thousands": 2121, "\u0437\u0438": 2122, "\u2581\u0445\u043e\u0447\u0435\u0442\u0435": 2123, "\u2581accept": 2124, "\u2581older": 2125, "\u2581\u0427\u043e\u0433\u043e": 2126, "\u2581picture": 2127, "\u2581air": 2128, "\u2581beginning": 2129, "\u25811914": 2130, "ity": 2131, "\u2581Christendom": 2132, "\u2581\u043f\u0430": 2133, "\u0431\u0443": 2134, "\u2581\u0441\u0430\u043c\u043e\u0433\u043e": 2135, "\u2581watch": 2136, "\u25819:": 2137, "\u2581\u0442\u0432\u0430\u0440\u0438\u043d": 2138, "\u258117.": 2139, "\u2581\u043d\u0435\u0431\u0456": 2140, "\u2581\u043f\u0440\u0430\u0432\u0430": 2141, "\u044f\u0442\u0438": 2142, "\u258127": 2143, "\u2581provided": 2144, "\u0431\u0438": 2145, "\u043a\u043e\u043d": 2146, "\u2581\u0445\u043e\u0447\u0435\u0448": 2147, "\u2581instead": 2148, "\u2581office": 2149, "\u2581War": 2150, "\u2581whatever": 2151, "\u2581\u0456\u043d\u0444\u043e\u0440\u043c\u0430\u0446\u0456\u044e": 2152, "\u2581\u0441\u0430\u043c\u0430": 2153, "\u2581\u0443\u0447\u043d\u0456\u0432": 2154, "\u0436\u0435": 2155, "\u2581\u0436\u0438\u0432\u0435": 2156, "\u2581pain": 2157, "\u2581\u0434\u043e\u043f\u043e\u043c\u043e\u0433\u0443": 2158, "\u2581Africa": 2159, "\u2581\u0411\u043e\u0436\u0456": 2160, "\u2581\u043d\u0430\u0448\u043e\u0457": 2161, "\u043e\u0440": 2162, "\u2581held": 2163, "\u2581exactly": 2164, "\u2581front": 2165, "\u2581\u0442\u0456\u043b\u0430": 2166, "\u2581clean": 2167, "\u2581alive": 2168, "\u2581sons": 2169, "\u2581daughter": 2170, "\u258124:": 2171, "\u2581witness": 2172, "\u2581\u0437\u0440\u043e\u0431\u0438\u043b\u0438": 2173, "\u2581\u0440\u043e\u0431\u043b\u044f\u0442\u044c": 2174, "\u2581visit": 2175, "\u2581\u0437\u043c\u043e\u0436\u0435\u0442\u0435": 2176, "\u2581\u0432\u0441\u0456\u043c": 2177, "\u2581fight": 2178, "\u2581hour": 2179, "\u2581\u0412\u0441\u0456": 2180, "\u2581\u043c\u0456\u0441\u0446\u0456": 2181, "no": 2182, "\u2581moment": 2183, "\u2581\u043d\u044c\u043e\u043c\u0443": 2184, "\u2581May": 2185, "\u2581Jewish": 2186, "\u2581Romans": 2187, "\u2581Devil": 2188, "il": 2189, "\u2581\u0442\u0456\u043b\u043e": 2190, "\u2581size": 2191, "\u2581\u0442\u0435\u043a\u0441\u0442": 2192, "\u2581\u0446\u0435\u0440\u043a\u0432\u0438": 2193, "\u2581\u0430\u0434\u0436\u0435": 2194, "\u0415": 2195, "\u2581usually": 2196, "\u2581completely": 2197, "\u2581month": 2198, "\u2581hell": 2199, "\u0440\u0456": 2200, "\u2581powerful": 2201, "N": 2202, "\u2581e": 2203, "\u2581sun": 2204, "\u043a\u0440\u0438": 2205, "\u2581$": 2206, "\u2581level": 2207, "\u2581\u0419\u043e\u043c\u0443": 2208, "\u2581sheep": 2209, "\u2581\u043f\u043e\u0434\u0456\u0457": 2210, "\u2581\u0447\u0438\u043c": 2211, "\u2581named": 2212, "\u043e\u0441": 2213, "\u2581add": 2214, "\u043d\u043e\u043c\u0443": 2215, "\u2581nice": 2216, "\u2581mentioned": 2217, "\u2581g": 2218, "\u2581\u0434\u043e\u0431\u0440\u0443": 2219, "\u2581\u0446\u0456\u043b\u043e\u043c\u0443": 2220, "\u2581t": 2221, "\u043b\u0438\u0441\u044f": 2222, "\u2581\u0417\u0430\u0432\u0434\u044f\u043a\u0438": 2223, "\u2581\u0436\u0456\u043d\u043e\u043a": 2224, "ul": 2225, "\u2581animals": 2226, "\u2581\u0431\u0443\u0434\u0435\u0442": 2227, "\u2581voice": 2228, "\u2581\u043b\u044e\u0431\u0438\u0442\u044c": 2229, "\u2581\u0434\u0456\u0430\u043b\u043e\u0433\u043e\u0432": 2230, "\u2581\u043d\u0443\u0436\u043d\u043e": 2231, "as": 2232, "\u2581events": 2233, "\u2581reports": 2234, "\u2581\u043a\u043e\u043d": 2235, "\u2581pray": 2236, "\u2581Society": 2237, "\u2581third": 2238, "\u043f\u0456": 2239, "\u2581\u0441\u0442\u0430\u043b\u043e": 2240, "\u2581Consider": 2241, "\u2581\u0421\u043b\u043e\u0432\u0430": 2242, "\u2581authority": 2243, "\u2581everlasting": 2244, "\u2581wish": 2245, "\u2581\u043e\u0434\u043d\u043e": 2246, "\u2581parts": 2247, "\u2581places": 2248, "\u2581\u0456\u043d\u0444\u043e\u0440\u043c\u0430\u0446\u0456\u0457": 2249, "\u043b\u0435\u043d\u043d\u044f": 2250, "\u2581\u0447\u0430\u0441\u0438": 2251, "\u2581\u043c\u0430\u0454\u0442\u0435": 2252, "\u043d\u043d\u044f": 2253, "\u2581draw": 2254, "\u2581\u0432\u043f\u043b\u0438\u0432": 2255, "\u2581Hi": 2256, "\u2581\u043f\u0440\u043e\u0431\u043b\u0435\u043c": 2257, "\u2581millions": 2258, "\u258115:": 2259, "\u2581decided": 2260, "\u2581\u0446\u0430\u0440": 2261, "\u2581search": 2262, "\u2581\u0434\u043e\u043b\u0430\u0440\u0456\u0432": 2263, "\u2581understanding": 2264, "\u2581\u0440\u043e\u0437\u0432": 2265, "\u2581\u043a\u043e": 2266, "\u2581\u0441\u044f": 2267, "\u2581File": 2268, "\u2581various": 2269, "\u2581apostles": 2270, "\u2581doubt": 2271, "\u2581sacrifice": 2272, "\u2581\u0406\u0432\u0430\u043d": 2273, "\u2581built": 2274, "\u2581red": 2275, "\u2581Life": 2276, "\u2581\u0431\u0456\u043b\u044f": 2277, "\u2581select": 2278, "\u2581complete": 2279, "\u2581display": 2280, "\u2581minutes": 2281, "\u2581\u0432\u0435\u043b\u0438\u043a\u0443": 2282, "\u2581feeling": 2283, "\u2581\u043c\u0438\u0448\u0456": 2284, "\u258110,": 2285, "\u2581Pictures": 2286, "\u2581looked": 2287, "\u2581\u0423\u0441\u0456": 2288, "\u2581fall": 2289, "\u2581\u0410\u043f\u043e\u0441\u0442\u043e\u043b": 2290, "at": 2291, "\u2581spoke": 2292, "\u2581strength": 2293, "\u043f\u0430": 2294, "\u2581\u0417\u0433\u0456\u0434\u043d": 2295, "\u2581\u0411\u043e\u0436\u0438\u0445": 2296, "\u2581\u043a\u0456\u043d\u0435\u0446\u044c": 2297, "\u2581\u0447\u0438\u0442\u0430\u0442\u0438": 2298, "ia": 2299, "\u2581heavens": 2300, "\u2581\u043a\u0440\u0430\u0457\u043d\u0438": 2301, "\u0420": 2302, "\u2581\u0437\u0431\u0456\u0440": 2303, "\u2581white": 2304, "\u2581\u041f\u0430\u0440\u0430\u043c\u0435\u0442\u0440\u0438": 2305, "\u2581\u0447\u0435\u043c": 2306, "\u2581Could": 2307, "\u2581\u0431\u043e\u043a\u0443": 2308, "\u258126": 2309, "\u2581\u041c\u0456\u0439": 2310, "\u2581\u0441\u043f\u0440\u0430\u0432\u0443": 2311, "\u2581students": 2312, "\u0436\u0443": 2313, "\u0425": 2314, "\u2581followers": 2315, "\u0491": 2316, "\u2581test": 2317, "\u2581\u0422\u0430\u043a\u0438\u043c": 2318, "\u2581\u0432\u0456\u0434\u0435\u043e": 2319, "\u2581\u043f\u0456\u0442\u0438": 2320, "\u2581enter": 2321, "],": 2322, "\u2581\u043f\u0440\u044f\u043c\u043e": 2323, "\u2581St": 2324, "\u2581\u0441\u043f\u0438\u0441\u043e\u043a": 2325, "\u2581Uh": 2326, "\u2581\u0421\u0430\u043c\u0435": 2327, "\u2581sign": 2328, "\u2581grow": 2329, "\u2581\u043c\u0435\u043d\u0448\u0435": 2330, "\u2581\u043d\u0430\u0431\u0430\u0433\u0430\u0442\u043e": 2331, "\u2581\u0434\u043e\u0432\u0433\u043e": 2332, "\u2581opportunity": 2333, "\u2581direction": 2334, "\u2581\u043f\u0440\u0430\u0432\u043e": 2335, "\u2581\u043f\u0440\u043e\u043f\u043e\u0432\u0456\u0434\u0443\u0432\u0430\u0442\u0438": 2336, "\u2581\u0437\u0430\u043f\u0438\u0441": 2337, "\u2581\u0442\u0432\u043e\u044f": 2338, "\u2581offer": 2339, "\u2581\u0438\u0445": 2340, "\u0432\u0441\u044f": 2341, "\u0441\u0442\u0430\u043d": 2342, "\u2581worked": 2343, "\u2581\u043f\u043e\u0442\u0440\u0435\u0431\u0438": 2344, "\u25810": 2345, "\u2581break": 2346, "\u2581\u0436\u0438\u0432": 2347, "\u25817,": 2348, "\u2581interested": 2349, "\u2581\u0443\u0432\u0430\u0437\u0456": 2350, "\u043a\u043e\u0432": 2351, "\u2581\u0434\u043e\u0431\u0440\u043e": 2352, "\u0441\u044c\u043a\u0438\u0439": 2353, "\u2581process": 2354, "\u2581\u0442\u0432\u0456\u0439": 2355, "\u2581inspired": 2356, "\u0436\u0430": 2357, "\u2581user": 2358, "\u2581gets": 2359, "\u2581\u0437\u0432\u0438\u0447\u0430\u0439\u043d\u043e": 2360, "\u2581choice": 2361, "\u2581\u0431\u0430\u0442\u044c\u043a\u0430": 2362, "\u0435\u043d": 2363, "\u2581y": 2364, "\u2581\u043d\u0438": 2365, "\u2581indeed": 2366, "\u2581sir": 2367, "\u2581\u0447\u0438\u043c\u0430\u043b\u043e": 2368, "\u0446\u0456\u0439": 2369, "\u0434\u0435\u043d": 2370, "\u2581\u041d\u044c\u044e": 2371, "\u2581\u0433\u043e\u043b\u043e\u0441": 2372, "\u042c": 2373, "\u2581\u044f\u043a\u0431\u0438": 2374, "\u2581led": 2375, "\u2581video": 2376, "\u2581\u0433\u0440\u0430": 2377, "\u2581Man": 2378, "\u2581Europe": 2379, "\u2581freedom": 2380, "\u2581learning": 2381, "ism": 2382, "\u2581names": 2383, "\u2581\u043a\u0442\u043e": 2384, "\u0432\u0430\u0442\u0438": 2385, "\u2581ground": 2386, "\u2581yes": 2387, "\u2581\u043d\u0430\u0448\u043e\u043c\u0443": 2388, "ch": 2389, "\u2581Another": 2390, "\u2581\u043e\u0447\u0456": 2391, "\u2581\u0434\u0440\u0443\u0436\u0438\u043d\u0430": 2392, "\u2581\u043f\u0435\u0440\u0448\u0438\u0439": 2393, "Laughter": 2394, "\u2581destruction": 2395, "\u2581disease": 2396, "\u2581\u043a\u0430\u0436\u0443\u0447\u0438": 2397, "\u2581decision": 2398, "\u2581\u043b\u044e\u0434\u0438\u043d\u0443": 2399, "\u258117:": 2400, "\u2581\u0425\u043e\u0447": 2401, "\u2581mail": 2402, "\u2581\u041c\u043e\u0436\u0435": 2403, "\u2581\u0425\u043e\u0440\u043e\u0448\u043e": 2404, "\u2581\u0442": 2405, "\u2581hearts": 2406, "\u2581gift": 2407, "\u2581brain": 2408, "\u2581town": 2409, "\u2581\u0441\u0442\u043e\u0441\u0443\u043d\u043a\u0438": 2410, "\u0441\u044c\u043a\u043e\u0433\u043e": 2411, "\u2581Hebrew": 2412, "\u044f\u043c": 2413, "\u2581black": 2414, "\u043b\u0456\u0432": 2415, "\u2581birth": 2416, "\u2581\u0457\u0445\u043d\u044e": 2417, "\u2581\u043d\u0430\u0434\u0437\u0432\u0438\u0447\u0430\u0439\u043d\u043e": 2418, "\u044e\u0442\u044c\u0441\u044f": 2419, "\u043c\u0435\u043d": 2420, "\u258129": 2421, "\u2581\u0431\u044b\u043b\u0430": 2422, "\u2581individuals": 2423, "\u2581\u0431\u0430\u0436\u0430\u0454\u0442\u0435": 2424, "\u2581\u043d\u0456\u0439": 2425, "W": 2426, "\u0435\u0440": 2427, "\u2581\u0437\u0430\u043c\u0456\u0441\u0442\u044c": 2428, "\u2581\u0440\u043e\u0437\u0443\u043c": 2429, "\u2581social": 2430, "\u2581\u041c\u043e\u044f": 2431, "\u2581prove": 2432, "\u2581judgment": 2433, "\u2581\u0446\u0456\u043b\u043a\u043e\u043c": 2434, "\u2581\u0432\u0437\u0430\u0433\u0430\u043b\u0456": 2435, "ro": 2436, "\u0448\u0443": 2437, "\u2581\u0447\u043e\u043b\u043e\u0432\u0456\u043a\u0456\u0432": 2438, "\u2581violence": 2439, "\u043f\u0440\u0438": 2440, "\u2581activity": 2441, "\u2581pages": 2442, "\u2581\u0441\u0435\u0440": 2443, "\u2581considered": 2444, "\u2581Watch": 2445, "\u2581\u0441\u043b\u0443\u0436\u0456\u043d\u043d\u0456": 2446, "\u2581\u0440\u0435\u0447\u0435\u0439": 2447, "\u041d": 2448, "\u0438\u043b\u043e": 2449, "\u2581main": 2450, "\u2581\u043e\u0442\u0436\u0435": 2451, "\u2581\u041e\u0442": 2452, "City": 2453, "\u258121:": 2454, "\u2581kindness": 2455, "\u2581quickly": 2456, "V": 2457, "\u2581\u043d\u043e\u0432\u043e\u0433\u043e": 2458, "\u2581continued": 2459, "\u2581\u0428": 2460, "\u2581\u043d\u043e\u0432\u0456": 2461, "ist": 2462, "\u0438\u0442": 2463, "\u2581American": 2464, "\u2581effort": 2465, "\u2581\u0439\u0442\u0438": 2466, "\u2581sick": 2467, "\u2581\u0441\u0438\u043b\u044c\u043d\u043e": 2468, "\u043d\u044b\u0439": 2469, "\u2581\u0414\u0430\u0432\u0430\u0439\u0442\u0435": 2470, "\u0434\u0435\u0440": 2471, "\u043c\u0435\u0440": 2472, "\u0456\u0442\u044c": 2473, "up": 2474, "\u2581glory": 2475, "\u0440\u043e\u043d": 2476, "\u2581necessary": 2477, "\u2581\u0434\u043e\u0440\u0456\u0432\u043d\u044e\u0454": 2478, "\u2581rich": 2479, "\u2581Really": 2480, "\u2581\u0431\u0456\u0431\u043b\u0456\u0439\u043d\u0438\u0445": 2481, "\u0440\u043e\u0431": 2482, "\u258114:": 2483, "\u2581condition": 2484, "\u0435\u043d\u0456": 2485, "\u2581\u0425": 2486, "\u2581\u043e\u0442\u0440\u0438\u043c\u0430\u0432": 2487, "\u2581gain": 2488, "\u2581Box": 2489, "\u2581Church": 2490, "\u2581uh": 2491, "\u0442\u043e\u0440": 2492, "\u2581\u0421\u0432\u0456\u0434\u043a\u0430\u043c\u0438": 2493, "\u2581\u0421\u0438\u043d\u0430": 2494, "\u2581\u0434\u043e\u0441\u0442\u0430\u0442\u043d\u044c\u043e": 2495, "\u044f\u0437\u043e\u043a": 2496, "\u0448\u0456": 2497, "\u2581carry": 2498, "\u2581cell": 2499, "\u2581\u0441\u0442\u043e\u0440\u0456\u043d\u043a\u0430": 2500, "\u0446\u0435": 2501, "\u2581send": 2502, "\u2581\u0434\u0436\u0435\u0440\u0435\u043b\u043e": 2503, "\u2581realize": 2504, "\u2581\u0445\u043e\u0434\u0438\u0442\u0438": 2505, "\u2581\u0431\u0430\u0447\u0438\u043b\u0438": 2506, "\u2581Solomon": 2507, "\u0441\u0435": 2508, "\u2581\u0441\u0432\u0456\u0442\u043b\u043e": 2509, "\u2581energy": 2510, "\u2581eye": 2511, "\u2581described": 2512, "\u2581\u0434\u0440\u0443\u0437\u0456\u0432": 2513, "\u2581\u0432\u0430\u0448\u0435": 2514, "\u0438\u0442\u0438\u0441\u044f": 2515, "\u2581\u0433\u0440\u0456\u0445": 2516, "\u2581\u0441\u0442\u043e\u0441\u0443\u0454\u0442\u044c\u0441\u044f": 2517, "\u0430\u0446\u0456\u0457": 2518, "\u2581\u042f\u043a\u0435": 2519, "\u2581\u043d\u0443": 2520, "\u043f\u0430\u0434": 2521, "\u2581org": 2522, "\u2581subject": 2523, "\u2581\u043c\u0430\u0439\u0431\u0443\u0442\u043d\u0454": 2524, "\u2581added": 2525, "\u2581running": 2526, "\u2581Rather": 2527, "\u2581\u0431\u0430\u0447\u0438\u043c\u043e": 2528, "\u2581\u0445\u043e\u0447\u0443\u0442\u044c": 2529, "\u2581afraid": 2530, "\u2581apply": 2531, "\u2581\u0441\u043a\u043b\u0430\u0434": 2532, "\u2581\u0443\u0440\u044f\u0434": 2533, "\u2581\u043f\u0430\u0440\u0430\u043c\u0435\u0442\u0440\u0438": 2534, "\"?": 2535, "\u2581tells": 2536, "\u2581\u043d\u0430\u043c\u0456\u0440": 2537, "\u2581OK": 2538, "\u2581\u0441\u0442\u043e\u0440\u0456\u043d\u043a\u0438": 2539, "\u2581\u043c\u0456\u0441\u0442\u0456": 2540, "\u2581finally": 2541, "\u2581\u0440\u0438\u0441\u0438": 2542, "\u2581\u0442\u0430\u043a\u0438\u043c\u0438": 2543, "am": 2544, "\u258114,": 2545, "\u2581allowed": 2546, "\u0435\u043d\u043d\u044f": 2547, "\u2581Me": 2548, "\u2581flesh": 2549, "\u2581\u043d\u0435\u043c\u043e\u0436\u043b\u0438\u0432\u043e": 2550, "\u2581explained": 2551, "\u2581\u25cf": 2552, "\u0427": 2553, "\u2581\u0441\u0438\u043d\u0430": 2554, "ment": 2555, "\u0433\u043e\u0440": 2556, "\u2581couldn": 2557, "\u2581step": 2558, "em": 2559, "\u2581ability": 2560, "\u2581More": 2561, "\u2581Only": 2562, "\u2581\u043f\u0435\u0432\u043d\u0456": 2563, "\u0433\u0430\u0434": 2564, "\u0435\u0448\u044c": 2565, "\u2581general": 2566, "\u2581\u0441\u0442\u043e": 2567, "\u2581OF": 2568, "\u2581\u0442\u0443\u0434\u0438": 2569, "\u2581True": 2570, "\u2581honor": 2571, "\u2581\u0441\u0442\u043e\u043b\u0456\u0442\u0442\u0456": 2572, "\u2581\u0415\u0441\u043b\u0438": 2573, "\u2581\u0434\u0456\u043c": 2574, "\u2581guess": 2575, "\u0430\u0454\u0442\u044c\u0441\u044f": 2576, "\u2581happens": 2577, "\u258118.": 2578, "\u2581clearly": 2579, "\u2581\u0435\u0449\u0435": 2580, "\u2581\u043a\u043e\u043b\u043e": 2581, "et": 2582, "\u2581slave": 2583, "\u2581\u041b\u0456": 2584, "\u2581\u0431\u043b\u0430\u0433\u043e\u0441\u043b\u043e\u0432\u0435\u043d\u043d\u044f": 2585, "\u2581\u0432\u0437\u044f\u0442\u0438": 2586, "\u2581\u043b\u044e\u0431\u043b\u044e": 2587, "\u2581\u0448\u043a\u043e\u043b\u0438": 2588, "\u2581Thanks": 2589, "\u2581results": 2590, "\u2581instance": 2591, "\u2581unto": 2592, "\u2581\u0432\u0456\u0434\u043f\u043e\u0432\u0456\u0434\u0430\u0454": 2593, "\u2581forget": 2594, "\u2581\u0441\u0442\u0440\u0430\u0445": 2595, "\u2581o": 2596, "\u2581individual": 2597, "\u2581\u0416": 2598, "\u2581\u043a\u0430\u0436\u0443\u0442\u044c": 2599, "\u2581\u0457\u0445\u043d\u0456\u0439": 2600, "\u043d\u043e\u0441\u0442\u0456": 2601, "lo": 2602, "\u2581\u0411\u043e\u0436\u0438\u043c": 2603, "\u2581\u041a\u0430": 2604, "ie": 2605, "\u2581interesting": 2606, "\u2581reach": 2607, "\u0456\u0454\u044e": 2608, "\u2581\u043f\u0440\u0430\u0446\u044e\u0454": 2609, "\u2581\u043f\u0440\u043e\u0431\u043b\u0435\u043c\u0430": 2610, "\u2581explains": 2611, "\u2581\u0447\u0430\u0441\u0442\u0438\u043d\u043e\u044e": 2612, "\u2581(\"": 2613, "\u2581\u043d\u0435\u0445\u0430\u0439": 2614, "\u2581original": 2615, "\u2581failed": 2616, "\u2581record": 2617, "\u2581stated": 2618, "\u2581neither": 2619, "\u0456\u0441\u0442\u044e": 2620, "\u2581haven": 2621, "\u2581Babylon": 2622, "\u2581forward": 2623, "\u2581police": 2624, "\u0430\u0446\u0456\u044f": 2625, "\u2581doctor": 2626, "\u2581\u043c\u0443\u0441\u0438\u0442\u044c": 2627, "\u2581Two": 2628, "\u043d\u043e\u0432": 2629, "\u2581Use": 2630, "\u2581expression": 2631, "\u2581\u0432\u0435\u043b\u0438\u043a\u0456": 2632, "\u2581\u043d\u043e\u0432\u0438\u043d\u0443": 2633, "\u2581\u043d\u0456\u0447": 2634, "\u2581\u044d\u0442\u043e\u0433\u043e": 2635, "\u0441\u043e\u043d": 2636, "\u2581\u0432\u0456\u0434\u043d\u043e\u0441\u043d\u043e": 2637, "\u2581figure": 2638, "\u2581\u0433\u0440\u0443\u043f\u0438": 2639, "\u043f\u0440\u0430\u0432": 2640, "\u2581\u043f\u0440\u043e\u043f\u043e\u0432\u0456\u0434\u0443\u0432\u0430\u043d\u043d\u044f": 2641, "\u2581spend": 2642, "\u2581\u0437\u043d\u0430\u044e\u0442\u044c": 2643, "\u2581Awake": 2644, "\u2581\u0444": 2645, "\u2581circumstances": 2646, "\u2581\u0437\u043d\u0430\u043b\u0438": 2647, "\u2581\u0406\u043b\u044e\u0441\u0442\u0440\u0430\u0446\u0456\u0457": 2648, "\u2581\u043d\u0430\u043b\u0430\u0448\u0442\u0443\u0432\u0430\u043d\u043d\u044f": 2649, "\u2581families": 2650, "\u2581\u0437\u043b\u043e": 2651, "\u2581\u0414\u0443\u0436\u0435": 2652, "\u2581Wait": 2653, "Comment": 2654, "\u2581\u0432\u0438\u043a\u043e\u0440\u0438\u0441\u0442\u0430\u043d\u043d\u044f": 2655, "\u2581\u043f\u043b\u0430\u043d": 2656, "\u2581regarding": 2657, "\u2581thousand": 2658, "\u2581\u0442\u0440\u044c\u043e\u0445": 2659, "\u043a\u0456": 2660, "do": 2661, "\u2581yeah": 2662, "\u258116,": 2663, "\u2581\u0440\u043e\u043b\u044c": 2664, "\u2581\u043c\u043e\u043c\u0435\u043d\u0442": 2665, "\u2581\u0432\u0430\u0448\u0430": 2666, "\u2581\u043f\u0440\u0438\u0447\u0438\u043d\u0438": 2667, "\u2581willing": 2668, "\u2581Witness": 2669, "\u2581company": 2670, "\u2581published": 2671, "\u2581moving": 2672, "\u2581regular": 2673, "\u2581\u0432\u0435\u0441\u044c": 2674, "\u2581\u0434\u0456\u0457": 2675, "\u2581\u0440\u0430\u0441": 2676, "ial": 2677, "\u0440\u0438": 2678, "\u2581influence": 2679, "\u2581fast": 2680, "\u2581efforts": 2681, "\u2581\u043f\u0438\u0441\u0430\u0432": 2682, "\u2581Stop": 2683, "\u2581ahead": 2684, "\u2581item": 2685, "\u2581centuries": 2686, "\u2581\u043c\u043e\u0436\u0435\u0442": 2687, "\u2581=": 2688, "\u2581promised": 2689, "\u2581appreciate": 2690, "\u2581begin": 2691, "\u2581cost": 2692, "\u2581\u0434\u0443\u043c\u0430\u0432": 2693, "\u2581\u0441\u0442\u0432\u043e\u0440\u0435\u043d\u043d\u044f": 2694, "\u2581hurt": 2695, "\u2581\u0432\u0435\u043b\u0438\u043a\u0430": 2696, "\u2581expect": 2697, "\u0445\u043e\u0434": 2698, "ce": 2699, "\u0416": 2700, "\u2581copy": 2701, "\u2581Genesis": 2702, "\u2581population": 2703, "\u2581default": 2704, "\u2581\u0434\u0438\u0442\u0438\u043d\u0430": 2705, "\u2581computer": 2706, "\u2581phone": 2707, "\u2581Hello": 2708, "\u2581covenant": 2709, "\u2581\u0436\u0430\u043b\u044c": 2710, "\u2581spent": 2711, "\u2581\u0434\u043e\u043f\u043e\u043c\u043e\u0433\u0438": 2712, "\u2581across": 2713, "\u2581chance": 2714, "\u2581\u0457\u0445\u043d\u0454": 2715, "\u043f\u0438": 2716, "\u2581seeing": 2717, "\u2581security": 2718, "\u2581Mark": 2719, "\u2581sex": 2720, "\u2581major": 2721, "\u258122.": 2722, "9": 2723, "\u2581normal": 2724, "\u2581imagine": 2725, "\u2581km": 2726, "\u2581positive": 2727, "\u2581\u041d\u0435\u0445\u0430\u0439": 2728, "\u2581\u043c\u0430\u043c\u0430": 2729, "\u2581\u043d\u0430\u0440\u043e\u0434\u0436\u0435\u043d\u043d\u044f": 2730, "\u2581\u0432\u0438\u0434\u043d\u043e": 2731, "\u2581earlier": 2732, "\u2581\u0404\u0433\u043e\u0432\u043e\u044e": 2733, "\u2581meant": 2734, "\u2581practice": 2735, "op": 2736, "\u2581\u0420\u0435": 2737, "\u0457\u0432": 2738, "\u2581\u0437\u0443\u0441\u0438\u043b\u044c": 2739, "la": 2740, "\u258111,": 2741, "\u2581\u0440\u043e\u0434\u0438\u043d\u0438": 2742, "=": 2743, "\u2581safe": 2744, "\u2581\u0432\u0432\u0430\u0436\u0430\u044e\u0442\u044c": 2745, "\u2581cells": 2746, "\u2581\u0434\u0430\u0440": 2747, "\u2581\u044d\u0442\u043e\u043c": 2748, "\u0443\u0454\u0442\u044c\u0441\u044f": 2749, "\u258112,": 2750, "\u2581contact": 2751, "\u2581Give": 2752, "\u2581caused": 2753, "\u2581kids": 2754, "\u2581\u043f\u0440\u0430\u0446\u044e": 2755, "\u2581\u0421\u043f\u0440\u0430\u0432\u0434\u0456": 2756, "\u2581\u043a\u0440\u0430\u0457\u043d\u0456": 2757, "\u2581qualities": 2758, "ive": 2759, "\u2581\u0434\u043e\u0441\u0456": 2760, "\u2581lose": 2761, "est": 2762, "\u0438\u043b\u0438\u0441\u044f": 2763, "\u043f\u0435\u0440": 2764, "ne": 2765, "\u2581\u0432\u043e\u043b\u0456": 2766, "one": 2767, "\u2581',": 2768, "\u2581\u043c\u0438\u0440\u0443": 2769, "ry": 2770, "\u2581\u0420\u0430\u043c\u043a\u0430": 2771, "\u044f\u0432\u043b\u0435\u043d\u043d\u044f": 2772, "\u2581\u0441\u0442\u0432\u043e\u0440\u0438\u0442\u0438": 2773, "\u2581\u0433\u0430\u0440\u0430\u0437\u0434": 2774, "\u2581d": 2775, "\u2581protect": 2776, "\u0445\u0430": 2777, "\u2581pressure": 2778, "\u0442\u0438\u0441\u044c": 2779, "\u2581\u0432\u0430\u0448\u0438\u0445": 2780, "\u2581200": 2781, "\u2581\u0436\u0438\u0432\u0443\u0442\u044c": 2782, "\u2581evil": 2783, "\u2581anymore": 2784, "\u2581chapter": 2785, "\u2581Name": 2786, "\u2581About": 2787, "\u2581II": 2788, "\u2581\u041a\u043e": 2789, "\u2581\u043c\u043e\u0432\u0438": 2790, "\u2581\u0447\u0438\u0441\u043b\u043e": 2791, "\u2581\u0434\u043e\u0441\u043b\u0456\u0434\u0436\u0435\u043d\u043d\u044f": 2792, "\u2581Keep": 2793, "\u2581\u0432\u043e": 2794, "\u2581\u0441\u043a\u0430\u0437\u0430\u043b\u0438": 2795, "\u2581role": 2796, "\u2581universe": 2797, "\u2581\u0432\u0438\u043a\u043e\u043d\u0430\u043d\u043d\u044f": 2798, "\u2581moral": 2799, "\u2581crowd": 2800, "\u2581nature": 2801, "\u2581\u0421\u0443": 2802, "\u2581\u0435\u0451": 2803, "\u2581\u043a\u0430\u0440": 2804, "\u2581points": 2805, "\u2581proved": 2806, "\u2581@": 2807, "\u2581waiting": 2808, "\u2581\u041c\u0430\u0442\u0432\u0456\u044f": 2809, "\u2581amount": 2810, "\u2581include": 2811, "\u2581Hebrews": 2812, "\u2581worldwide": 2813, "\u2581\u043a\u0440\u0430\u0457\u043d": 2814, "\u2581saved": 2815, "\u2581tomorrow": 2816, "\u0432\u043e\u0434": 2817, "\u2581numbers": 2818, "\u2581Earth": 2819, "\u2581\u043f\u0456\u0448\u043e\u0432": 2820, "\u2581examples": 2821, "\u2581\u043f\u0435\u0440\u0456\u043e\u0434": 2822, "\u2581answers": 2823, "\u2581Instead": 2824, "\u2581\u0411\u043e\u0436\u0443": 2825, "\u2581\u0432\u0456\u0434\u0440\u0430\u0437\u0443": 2826, "\u2581\u0435\u0435": 2827, "\u043a\u0441": 2828, "\u2581helps": 2829, "\u2581appear": 2830, "\u2581non": 2831, "\u2581throughout": 2832, "\u043e\u0432\u0438\u0439": 2833, "\u0449\u0435": 2834, "\u2581mouth": 2835, "\u2581thank": 2836, "\u2581Still": 2837, "\u2581\u0410\u0431\u043e": 2838, "\u2581\u0442\u0435\u043b\u0435\u0444\u043e\u043d": 2839, "\u0421\u043c\u0456\u0445": 2840, "\u2581\u0445\u043e\u0440\u043e\u0448\u043e": 2841, "\u2581\u0447\u0430\u0441\u0442\u0438\u043d\u0430": 2842, "\u2581\u0441\u0443\u0442\u0456": 2843, "\u2581active": 2844, "\u2581\u0434\u0430\u043b\u0435\u043a\u043e": 2845, "\u2581\u043f\u0440\u0438\u043d\u043e\u0441\u0438\u0442\u044c": 2846, "\u2581creation": 2847, "\u2581\u041f\u0440\u0438\u0432\u0456\u0442": 2848, "Y": 2849, "ate": 2850, "\u2581\u0441\u0443": 2851, "\u2581\u0444\u0430\u043a\u0442": 2852, "ter": 2853, "\u2581spiritually": 2854, "\u2581\u0432\u043e\u0441\u043a\u0440\u0435\u0441\u0456\u043d\u043d\u044f": 2855, "\u258120.": 2856, "\u041f\u0440\u043e\u0447\u0438\u0442\u0430\u0439\u0442\u0435": 2857, "\u2581\u0422\u0456\u043b\u044c\u043a\u0438": 2858, "\u2581\u043f\u043e\u0432\u0438\u043d\u043d\u0430": 2859, "\u2581\u043f\u043e\u043c\u0435\u0440": 2860, "\u2581confidence": 2861, "\u2581prison": 2862, "\u2581telling": 2863, "\u2581\u043c\u0456\u0441\u044f\u0446\u0456\u0432": 2864, "\u2581\u0444\u0430\u0439\u043b\u0438": 2865, "\u2581\u043f\u0430\u043d\u0435\u043b\u0456": 2866, "\u2581IN": 2867, "\u2581conditions": 2868, "\u2581\u0434\u0443\u0445\u043e\u043c": 2869, "\u2581\u041f\u0430\u0432\u043b\u0430": 2870, "\u043b\u0456\u0442": 2871, "\u2581America": 2872, "\u2581\u0445\u043e\u0447\u0435\u043c\u043e": 2873, "\u2581followed": 2874, "\u2581\u0414\u0456": 2875, "\u25aa": 2876, "co": 2877, "\u043d\u043e\u0439": 2878, "\u2581lands": 2879, "\u2581\u0441\u043f\u0456\u0432": 2880, "\u2581\u0446\u0456\u043b\u0456": 2881, "\u2581areas": 2882, "\u2581angels": 2883, "\u2581congregations": 2884, "\u2581\u0420": 2885, "\u2581cases": 2886, "\u2581served": 2887, "\u2581\u043a\u043e\u0442\u0440\u0438\u0439": 2888, "\u2581\u044f\u043a\u0438\u0439\u0441\u044c": 2889, "\u2581\u0422\u043e\u0431\u0456": 2890, "\u2581\u043a\u043d\u0438\u0433\u0438": 2891, "\u043d\u0443\u0432": 2892, "\u2581\u043e\u0447\u0435\u043d\u044c": 2893, "\u2581plan": 2894, "um": 2895, "\u0440\u0430\u0437": 2896, "\u2581raised": 2897, "\u2581\u0441\u0442\u0430\u043d\u0435": 2898, "\u2581\u043f\u043e\u0442\u0440\u0456\u0431\u043d\u0430": 2899, "\u2581\u0456\u043d\u0448\u0435": 2900, "\u2581advice": 2901, "\u2581explain": 2902, "\u2581\u043a\u043e\u0440\u0438\u0441\u0442\u044c": 2903, "\u2581reasons": 2904, "\u2581\u041a\u043e\u0440": 2905, "\u2581\u0440\u043e\u0437\u043f\u043e\u0432\u0456\u0434\u0430\u0454": 2906, "\u258118:": 2907, "\u2581beyond": 2908, "\u2581\u0434\u0440\u0443\u0433": 2909, "\u2581increase": 2910, "\u0438\u043c\u043e": 2911, "\u258122,": 2912, "\u2581helping": 2913, "\u2581Settings": 2914, "ian": 2915, "\u2581pre": 2916, "\u2581project": 2917, "\u2581\u0423\u0441\u0435": 2918, "gt": 2919, "\u2581\u0410\u043c\u0435\u0440\u0438\u043a\u0438": 2920, "\u0432\u0430\u043b": 2921, "\u258180": 2922, "\u2581\u043f\u0435\u0440\u0448\u043e\u0433\u043e": 2923, "\u2581\u0417\u0430\u0440\u0430\u0437": 2924, "\u2581\u043e\u0440\u0433\u0430\u043d\u0456\u0437\u0430\u0446\u0456\u0457": 2925, "\u2581\u0431\u0440\u0430\u0442\u0430": 2926, "\u2581\u0445\u0432\u0438\u043b\u0438\u043d": 2927, "\u258135": 2928, "\u2581bed": 2929, "\u2581plus": 2930, "\u2581\u0437\u0430\u0437\u0432\u0438\u0447\u0430\u0439": 2931, "\u2581\u0443\u0441\u0456\u043c": 2932, "\u2581weeks": 2933, "\u2581info": 2934, "\u2581\u0437\u0430\u0434\u043e\u0432\u043e\u043b\u0435\u043d\u043d\u044f": 2935, "\u258190": 2936, "\u2581lie": 2937, "ad": 2938, "\u2581\u0421\u043f\u0430\u0441\u0438\u0431\u043e": 2939, "\u2581Hence": 2940, "\u2581\u041d\u0410": 2941, "\u2581table": 2942, "We": 2943, "ta": 2944, "\u2581\u0446\u0430\u0440\u0441\u0442\u0432\u043e": 2945, "\u2581\u041e\u043d\u0438": 2946, "\u0438\u043b\u0438\u0441\u044c": 2947, "\u2581witnesses": 2948, "\u2581Indeed": 2949, "\u2581accepted": 2950, "\u2581sisters": 2951, "It": 2952, "\u2581stuff": 2953, "\u2581\u043c\u043e\u043b\u0438\u0442\u0432\u0438": 2954, "\u2581education": 2955, "\u0430\u043b\u043e": 2956, "\u2581Holy": 2957, "\u2581former": 2958, "\u2581\u0448": 2959, "\u043b\u0438\u0432": 2960, "\u2581sit": 2961, "na": 2962, "\u2581society": 2963, "\u0431\u0435": 2964, "\u2581appropriate": 2965, "\u0438\u043b": 2966, "\u2581\u0421\u043a\u0456\u043b\u044c\u043a\u0438": 2967, "\u2581\u042f\u043a\u0443": 2968, "\u2581\u043e\u0434\u044f\u0433": 2969, "\u2581earthly": 2970, "\u2581vital": 2971, "\u2581Select": 2972, "\u2581groups": 2973, "\u2581sins": 2974, "\u2581\u0432\u0456\u0434\u043f\u043e\u0432\u0456\u0434\u0456": 2975, "\u2581\u25aa": 2976, "\u2581term": 2977, "\u2581comfort": 2978, "\u2581languages": 2979, "\u2581total": 2980, "\u2581articles": 2981, "\u2581mine": 2982, "\u2581seek": 2983, "\u2581Open": 2984, "\u2581\u0412\u0430\u0440\u0442\u043e\u0432\u043e\u0457": 2985, "\u2581passed": 2986, "\u2581training": 2987, "\u2581\u0421\u0430\u0442\u0430\u043d\u0438": 2988, "\u2581due": 2989, "\u2581asking": 2990, "\u2581\u0422\u0435\u0431\u0435": 2991, "\u0440\u0430\u0445": 2992, "\u043d\u0438\u043a\u0438": 2993, "\u2581final": 2994, "\u2581\u043d\u0435\u0431\u0430": 2995, "\u2581Also": 2996, "\u2581\u0441\u0438\u043b\u0430": 2997, "\u2581produce": 2998, "\u2581Before": 2999, "\u2581\u043f\u0443\u043d\u043a\u0442\u0443": 3000, "\u2581\u0442\u0430\u043a\u043e\u0457": 3001, "):": 3002, "\u2581\u043d\u0430\u0437\u0432\u0443": 3003, "ies": 3004, "\u2581\u0410\u0440": 3005, "\u2581\u0434\u0435\u0449\u043e": 3006, "\u2581\u0437\u043d\u0438\u0449\u0435\u043d\u043d\u044f": 3007, "\u2581writing": 3008, "\u0440\u0435\u043d": 3009, "\u2581>": 3010, "\u2581returned": 3011, "\u2581View": 3012, "\u2581\u043a\u043d\u043e\u043f\u043a\u0443": 3013, "\u2581\u0440\u043e\u0431\u043e\u0442\u0430": 3014, "\u2581Joseph": 3015, "\u2581\u043e\u0447\u0435\u0432\u0438\u0434\u043d\u043e": 3016, "\u2581hate": 3017, "\u2581responsibility": 3018, "\u2581\u0432\u0442\u0456\u043c": 3019, "\u2581\u0432\u0434\u043e\u043c\u0430": 3020, "\u2581South": 3021, "\u2581\u0441\u0435\u0439\u0447\u0430\u0441": 3022, "\u0443\u0439\u0442\u0435": 3023, "\u258116:": 3024, "\u2581\u0432\u0430\u0448\u0443": 3025, "\u2581eight": 3026, "\u258119.": 3027, "\u2581\u0434\u0456\u0442\u044f\u043c": 3028, "\u2581\u0434\u0435\u0440\u0435\u0432\u0430": 3029, "\u2581\u043c\u043e\u043b\u043e\u0434\u0456": 3030, "\u2581fun": 3031, "\u2581Noah": 3032, "\u0430\u043b": 3033, "\u2581\u0434\u043e\u043f\u043e\u043c\u0430\u0433\u0430\u0442\u0438": 3034, "\u2581required": 3035, "\u2581Hall": 3036, "\u2581\u041e\u0434\u043d\u0430": 3037, "\u043a\u0430\u0445": 3038, "\u2581Time": 3039, "\u2581\u041c\u043e\u0436\u043d\u0430": 3040, "\u2581\u043f\u0435\u0440\u0448": 3041, "\u0434\u0430\u0432": 3042, "\u2581offered": 3043, "\u2581\u043f\u043e\u0447\u0430\u043b\u0430": 3044, "\u2581\u043a\u0456\u043b\u043e\u043c\u0435\u0442\u0440\u0456\u0432": 3045, "\u2581particular": 3046, "\u2581\u0433\u043e\u0434\u0438\u043d": 3047, "all": 3048, "\u2581\u043c\u0456\u043b\u044c\u0439\u043e\u043d\u0438": 3049, "\u2581Germany": 3050, "\u2581blessing": 3051, "\u2581standing": 3052, "\u2581\u0406\u0432\u0430\u043d\u0430": 3053, "\u2581\u0432\u0435\u043b\u0438\u043a\u0435": 3054, "\u2581\u043b\u044e\u0434\u0438\u043d\u043e\u044e": 3055, "\u2581\u0441\u043a\u043e\u0440\u043e": 3056, "\u2581basis": 3057, "de": 3058, "te": 3059, "\u2581\u0413\u043e\u0441\u043f\u043e\u0434\u0438": 3060, "\u2581laws": 3061, "\u2581trouble": 3062, "\u2581quality": 3063, "\u2581\u0437\u043c\u0456\u043d": 3064, "\u2581\u043d\u043e\u0432\u0443": 3065, "\u2581\u0448\u0443\u043a\u0430\u0442\u0438": 3066, "\u258113,": 3067, "\u2581Therefore": 3068, "\u2581\u0443\u0441\u044c\u043e\u0433\u043e": 3069, "\u2581title": 3070, "\u2581\u0411\u043e\u0433\u0443": 3071, "\u2581\u043f\u0435\u0440\u0448\u043e\u043c\u0443": 3072, "\u2581\u043a\u043e\u0433\u043e\u0441\u044c": 3073, "\u0434\u0438\u0432": 3074, "\u2581recent": 3075, "\u2581\u0406\u0441\u0443\u0441\u043e\u0432\u0456": 3076, "\u2581\u043d\u0430\u0440\u043e\u0434\u0456\u0432": 3077, "\u2581\u0457\u0445\u043d\u044c\u043e\u0433\u043e": 3078, "\u2581folder": 3079, "\u2581\u0437\u0430\u0432\u0442\u0440\u0430": 3080, "\u2581\u043f\u043e\u0441": 3081, "\u2581France": 3082, "\u2581\u0441\u0442\u0432\u043e\u0440\u0438\u0432": 3083, "\u0431\u043e": 3084, "\u2581busy": 3085, "\u2581price": 3086, "\u044f\u0432": 3087, "\u2581\u043f\u043e\u043a\u0430\u0437\u0430\u0442\u0438": 3088, "\u043b\u0443\u0447": 3089, "\u258120:": 3090, "\u2581showing": 3091, "\u2581\u0434\u0443\u043c\u0430\u0442\u0438": 3092, "\u2581net": 3093, "\u2581\u0434\u043e\u0431\u0440\u0430": 3094, "\u0446\u0435\u043c": 3095, "\u2581\u0410\u0434\u0430\u043c": 3096, "\u2581\u0437\u043d\u0430\u0445\u043e\u0434\u0438\u0442\u044c\u0441\u044f": 3097, "less": 3098, "\u2581\u041c\u043e\u0439\u0441\u0435\u0439": 3099, "\u2581playing": 3100, "\u2581\u0432\u0456\u043a\u0443": 3101, "\u0434\u0430\u0440": 3102, "\u2581application": 3103, "\u2581teacher": 3104, "\u2581document": 3105, "\u2581\u0432\u043e\u043b\u044e": 3106, "\u2581\u043a\u043e\u0440\u0438\u0441\u0442\u0443\u0432\u0430\u0447\u0430": 3107, "\u2581\u0447\u0435\u0441\u0442\u044c": 3108, "\u041b": 3109, "\u2581walking": 3110, "\u2581click": 3111, "\u2581speech": 3112, "\u0432\u0430\u043b\u0430": 3113, "\u2581\u0437\u0435\u043c\u043b\u044f": 3114, "\u2581\u043a\u0430\u0437\u0430\u0432": 3115, "\u2581foretold": 3116, "\u2581secret": 3117, "\u2581\u0436\u0438\u043b\u0438": 3118, "se": 3119, "\u2581medical": 3120, "\u2581Was": 3121, "\u2581\u043e\u0441\u0442\u0430\u043d\u043d\u0456": 3122, "\u0430\u0442\u043e\u0440": 3123, "\u043c\u043e\u0441\u044f": 3124, "\u2581\u043f\u043e\u044f\u0441\u043d\u044e\u0454": 3125, "\u0438\u043b\u0430\u0441\u044c": 3126, "\u2581opened": 3127, "\u2581\u0446\u0430\u0440\u044f": 3128, "\u0432\u0438\u0434": 3129, "\u2581greatest": 3130, "\u2581pass": 3131, "\u2581sexual": 3132, "\u2581\u043c\u043e\u0432": 3133, "\u2581\u0432\u0456\u0447\u043d\u0435": 3134, "\u2581maintain": 3135, "\u2581\u043b\u044e\u0434\u0441\u0442\u0432\u043e": 3136, "\u2581\u043f\u0440\u043e\u0433\u0440\u0430\u043c": 3137, "\u2581\u0442\u0438\u0441\u044f\u0447\u0456": 3138, "\u2581\u043d\u0430\u0441\u0435\u043b\u0435\u043d\u043d\u044f": 3139, "\u2581\u043f\u0440\u0438\u0437\u043d\u0430\u0447\u0435\u043d\u043d\u044f": 3140, "\u2581\u043a\u043d\u0438\u0436\u043a\u0438": 3141, "\u2581Tower": 3142, "\u2581error": 3143, "\u2581\u043f\u0440\u0438\u0447\u0438\u043d": 3144, "\u2581\u043a\u043d\u0438\u0436\u0446\u0456": 3145, "\u2581\u043c\u0430\u0454\u0448": 3146, "\u0438\u0442\u0435": 3147, "\u2581\u041f\u0440\u0438\u043c\u0456\u0442\u043a\u0430": 3148, "\u2581\u0447\u043e\u043b\u043e\u0432\u0456\u043a\u0438": 3149, "\u2581bear": 3150, "\u2581proper": 3151, "\u2581shit": 3152, "\u2581\u0441\u043f\u0440\u0430\u0432\u0430": 3153, "\u2581\u043c\u043e\u0457\u0445": 3154, "\u2581standards": 3155, "\u2581\u041f\u0440\u043e\u0442\u044f\u0433": 3156, "\u2581Her": 3157, "\u2581worry": 3158, "\u2581\u0438\u043b\u0438": 3159, "\u2581Tell": 3160, "\u2581\u0445\u043e\u0442\u0456\u043b\u0430": 3161, "ton": 3162, "\u0441\u0442\u043e\u0441\u043e\u0432\u043d\u043e": 3163, "\u2581\u0421\u0430\u043c": 3164, "\u2581\u0448\u043a\u043e\u043b\u0456": 3165, "\u2581fish": 3166, "\u2581\u0431\u043e\u043b\u044c\u0448\u0435": 3167, "\u2581\u043d\u0435\u0431\u043e": 3168, "\u2581conscience": 3169, "\u2581\u043d\u0430\u0439\u0431\u0456\u043b\u044c\u0448": 3170, "\u2581\u043c\u0430\u0440": 3171, "\u2581\u043f\u0430\u043d": 3172, "\u2581favor": 3173, "\u043c\u0435\u0448": 3174, "\u0456\u043d\u043d\u044f": 3175, "\u2581\u043d\u0430\u0432\u043a\u043e\u043b\u043e": 3176, "\u2581gold": 3177, "\u2581\u0434\u0435\u043a\u043e\u0442\u0440\u0456": 3178, "\u043b\u0430\u0441\u044f": 3179, "\u2581promises": 3180, "\u2581\u0406\u0441\u0430\u0457": 3181, "\u2581\u043d\u0430\u0437\u0432\u0430": 3182, "\u2581\u043f\u043e\u0442\u0440\u0456\u0431\u043d\u0456": 3183, "\u0441\u044c\u043a\u0430": 3184, "\u2581Perhaps": 3185, "\u2581fucking": 3186, "\u2581hit": 3187, "\u2581\u0414\u0435\u0445\u0442\u043e": 3188, "\u2581Read": 3189, "\u2581\u0446\u0456\u043a\u0430\u0432\u043e": 3190, "\u2581\u043f\u043e\u0432\u0456\u0442\u0440\u044f": 3191, "\u2581\u0447\u0430\u0441\u0442\u0438\u043d\u0438": 3192, "\u043d\u043e\u0441": 3193, "\u044f\u043d": 3194, "\u258121.": 3195, "\u258145": 3196, "\u2581Sorry": 3197, "\u2581\u0407\u0457": 3198, "\u2581environment": 3199, "\u2581\u0432\u0456\u0440\u0430": 3200, "id": 3201, "\u2581\u0412\u043e\u043d\u043e": 3202, "\u2581\u0421\u0435": 3203, "\u0430\u044e\u0442\u044c\u0441\u044f": 3204, "\u2581Jeremiah": 3205, "\u2581becoming": 3206, "\u2581concern": 3207, "\u2581exercise": 3208, "\u2581leaders": 3209, "\u2581worth": 3210, "\u2581\u0406\u043d\u0448\u0456": 3211, "\u2581\u0434\u0443\u0445\u043e\u0432\u043d\u043e": 3212, "\u2581\u043d\u0430\u0441\u043b\u0456\u0434\u043a\u0438": 3213, "\u2581branch": 3214, "In": 3215, "\u2581Egypt": 3216, "\u2581immediately": 3217, "\u2581low": 3218, "\u2581\u0433\u043e\u043b\u043e\u0432\u0443": 3219, "\u2581eventually": 3220, "\u2581\u0422\u0430\u043a\u0456": 3221, "\u258119:": 3222, "\u2581thoughts": 3223, "\u03bf": 3224, "\u043c\u0456\u0442": 3225, "\u2581calls": 3226, "\u2581hot": 3227, "\u2581\u0434\u0435\u0432": 3228, "\u2581developed": 3229, "\u2581\u0434\u0430\u0432\u0430\u0442\u0438": 3230, "\u2581\u041b\u0430\u0434\u043d\u043e": 3231, "\u2581\u0432\u0441\u044e": 3232, "\u2581\u043e\u0434\u043d\u0456\u0439": 3233, "\u2581\u043a\u0443\u0434\u0438": 3234, "\u2581\u0440\u043e\u0431\u0438\u0432": 3235, "\u2581road": 3236, "\u2581filled": 3237, "God": 3238, "\u2581daily": 3239, "\u2581\u0412\u0430\u0440\u0442\u043e\u0432": 3240, "\u2581\u0437\u0430\u043d\u0430\u0434\u0442\u043e": 3241, "\u043d\u0438\u0446\u044f": 3242, "\u2581addition": 3243, "\u2581appointed": 3244, "\u2581fulfillment": 3245, "\u2581Once": 3246, "\u2581\u043e\u0434\u043d\u0430\u043a": 3247, "\u2581\u041f\u043e\u0434\u0456\u0431\u043d\u043e": 3248, "\u2581\u043e\u0442\u0440\u0438\u043c\u0430\u043b\u0438": 3249, "\u0445\u043e": 3250, "\u2581hundred": 3251, "\u2581server": 3252, "\u042e": 3253, "\u2581Z": 3254, "\u2581activities": 3255, "\u2581\u041f\u0430\u043c": 3256, "\u2581\u041f\u0440\u0438\u0432\u0435\u0442": 3257, "\u2581girls": 3258, "\u2581\u0442\u043e\u0436": 3259, "\u2581cities": 3260, "\u2581becomes": 3261, "\u2581\u0434\u043e\u0441\u0442\u0443\u043f": 3262, "\u2581event": 3263, "\u2581Y": 3264, "\u043d\u043d\u0456": 3265, "\u2581experienced": 3266, "\u2581keeping": 3267, "\u2581pioneer": 3268, "\u2581\u0447\u0443\u0434\u043e\u0432\u043e": 3269, "\u2581minister": 3270, "\u2581\u043d\u0430\u0434\u0442\u043e": 3271, "\u2581\u0436\u043e\u0434\u043d\u043e\u0433\u043e": 3272, "\u2581Australia": 3273, "\u2581warning": 3274, "\u2581\u043e\u0441\u043e\u0431\u0430": 3275, "\u2581actions": 3276, "\u2581prayers": 3277, "\u2581\u0434\u0435\u0445\u0442\u043e": 3278, "\u2581\u043d\u0430\u0447\u0435": 3279, "\u2581\u0436\u0438\u0442\u0442\u044f\u043c": 3280, "\u0430\u043b\u044c": 3281, "\u2581\u0414\u0436\u043e\u043d": 3282, "\u2581\u0434\u0438\u0432\u043d\u043e": 3283, "\u2581suffer": 3284, "\u2581allows": 3285, "\u2581\u0432\u0435\u043b\u0438\u043a\u043e\u0433\u043e": 3286, "\u2581\u0432\u0438\u0431\u0456\u0440": 3287, "\u2581lack": 3288, "\u2581\u0440\u0435\u0433\u0443\u043b\u044f\u0440\u043d\u043e": 3289, "\u2581anger": 3290, "\u2581\u043c\u043e\u043b\u043e\u0434\u0438\u0445": 3291, "\u2581cold": 3292, "\u2581global": 3293, "\u2581regard": 3294, "\u2581values": 3295, "\u2581Help": 3296, "\u044f\u0442\u0430\u0442\u0438": 3297, "\u2581\u0434\u0432\u0435\u0440\u0456": 3298, "\u0443\u044e\u0442\u044c\u0441\u044f": 3299, "\u2581Remember": 3300, "\u2581URL": 3301, "\u2581\u041f\u0440\u043e\u0431\u0443\u0434\u0438\u0441\u044c": 3302, "\u2581party": 3303, "ent": 3304, "\u2581\u0437\u043d\u0430\u0447\u043d\u043e": 3305, "\u044f\u0437\u043a\u0438": 3306, "\u2581seemed": 3307, "\u2581supposed": 3308, "\u2581\u0432\u0438\u0432\u0447\u0430\u0442\u0438": 3309, "\u0446\u0456\u044f": 3310, "\u2581contains": 3311, "\u2581leaving": 3312, "\u2581provides": 3313, "\u044f\u0437\u0430\u043d\u0456": 3314, "\u2581\u043e\u0441\u043e\u0431\u0438\u0441\u0442\u043e": 3315, "\u0431\u043e\u0440": 3316, "\u043b\u0456\u043d": 3317, "\u2581German": 3318, "\u2581nearly": 3319, "\u2581\u0432\u0432\u0430\u0436\u0430\u0454": 3320, "\u2581[\"": 3321, "ir": 3322, "\u2581Japan": 3323, "\u2581function": 3324, "\u258136": 3325, "ma": 3326, "\u2581connection": 3327, "\u2581hospital": 3328, "\u2581\u0437\u043d\u0430\u0439\u0448\u043e\u0432": 3329, "\u2581\u043f\u043e\u043a\u0430\u0437\u0430\u0432": 3330, "son": 3331, "\u043f\u0443": 3332, "\u2581\u0406\u043c": 3333, "\u2581\u0432\u0441\u044c\u043e\u043c\u0443": 3334, "\u2581Add": 3335, "\u2581Rome": 3336, "\u2581arrived": 3337, "\u0442\u0440\u0430": 3338, "\u2581recorded": 3339, "\u2581\u0441\u0435": 3340, "\u2581\u0441\u043f\u043e\u0447\u0430\u0442\u043a\u0443": 3341, "\u0442\u0435\u0441\u044c": 3342, "\u2581\u041f\u0435\u0440\u0435\u0434": 3343, "\u2581\u043f\u043e\u043a\u0430": 3344, "\u2581\u043c\u0430\u0442\u0435\u0440\u0456": 3345, "\u043b\u043e\u043c": 3346, "\u2581behavior": 3347, "\u2581\u0432\u0456\u0434\u043f\u043e\u0432\u0456\u0434\u043d\u043e": 3348, "\u2581setting": 3349, "\u2581\u043f\u0440\u0430\u0432": 3350, "\u2581access": 3351, "\u2581spread": 3352, "\u2581\u043f\u043e\u0441\u0442\u0443\u043f": 3353, "\u2581\u0432\u0438\u0440\u0456\u0448\u0438\u0432": 3354, "\u2581\u0442\u0456\u0454\u0457": 3355, "\u2581\u043f\u0430\u0440": 3356, "\u2581harmony": 3357, "\u2581dog": 3358, "\u2581godly": 3359, "\u2581\u043d\u043e\u0432\u0438\u0445": 3360, "\u2581below": 3361, "\u2581\u041d\u044c\u043e\u0433\u043e": 3362, "ut": 3363, "\u2581related": 3364, "\u2581science": 3365, "\u2581\u043d\u043e\u0432\u0438\u043d\u0438": 3366, "\u0436\u0435\u043d": 3367, "\u2581\u043e\u0431\u0440\u0430\u0437": 3368, "\u2581\u043d\u0435\u043c\u0430": 3369, "age": 3370, "\u2581develop": 3371, "\u2581\u0422\u043e\u0439": 3372, "\u2581\u0446\u0456\u0454\u044e": 3373, "\u2581Over": 3374, "\u2581\u0442\u0438\u043c\u0438": 3375, "\u2581Scriptural": 3376, "\u2581\u0442\u0435\u043a\u0441\u0442\u0443": 3377, "\u043d\u0438\u0431\u0443\u0434\u044c": 3378, "\u2581although": 3379, "\u2581destroyed": 3380, "\u2581\u0432\u0447\u0435\u043d\u043d\u044f": 3381, "\u043a\u043e\u0440": 3382, "\u2581\u0441\u0438\u043b": 3383, "\u2581salvation": 3384, "\u043e\u0432\u0438\u0445": 3385, "\u2581risk": 3386, "\u2581animal": 3387, "\u2581\u0434\u043e\u0431\u0440\u0456": 3388, "\u2581Each": 3389, "\u2581difference": 3390, "\u2581\u043c\u0443\u0441\u044f\u0442\u044c": 3391, "\u2581enemies": 3392, "\u2581\u0424\u0430\u0439\u043b": 3393, "be": 3394, "ci": 3395, "\u2581center": 3396, "\u2581\u043c\u043e\u0439": 3397, "\u2581\u0443\u0432": 3398, "\u2581\u0434\u043e\u043b\u0436\u0435\u043d": 3399, "ling": 3400, "\u2581Later": 3401, "ish": 3402, "\u2581\u0437\u043d\u0430\u0439\u0448\u043b\u0438": 3403, "\u2581Which": 3404, "\u2581\u043c\u0435\u043d\u0448": 3405, "\u2581exist": 3406, "\u2581member": 3407, "\u2581sight": 3408, "\u2581justice": 3409, "\u2581\u0440\u043e\u0431\u0438\u043b\u0438": 3410, "\u2581com": 3411, "\u2581train": 3412, "\u2581\u043c\u0443\u0434\u0440\u0456\u0441\u0442\u044c": 3413, "\u2581decisions": 3414, "\u2581\u0434\u0435\u0441\u044f\u0442\u044c": 3415, "\u2581\u0441\u0435\u0441\u0442\u0440\u0430": 3416, "\u2581\u041b\u0430": 3417, "\u2581\u043d\u0430\u0434\u0456\u0457": 3418, "\u2581newspaper": 3419, "\u2581\u0412\u043e\u0442": 3420, "\u2581\u043d\u0430\u0441\u043b\u0456\u0434\u0443\u0432\u0430\u0442\u0438": 3421, "\u2581eating": 3422, "\u2581\u0411\u043e\u0436\u043e\u043c\u0443": 3423, "\u2581specific": 3424, "\u2581\u0434\u0456\u0442\u044c\u043c\u0438": 3425, "\u043d\u0443\u0442\u0438": 3426, "\u2581baptism": 3427, "\u2581team": 3428, "\u2581tribulation": 3429, "\u2581\u043f\u0435\u0440\u0435\u0433\u043b\u044f\u0434\u0443": 3430, "\u0441\u0442\u0435": 3431, "\u2581success": 3432, "\u2581trees": 3433, "\u2581art": 3434, "\u2581military": 3435, "\u2581\u043d\u0430\u043b\u0435\u0436\u0438\u0442\u044c": 3436, "\u0433\u0440\u0430": 3437, "\u0454\u043c\u043e": 3438, "\u2581privilege": 3439, "\u2581\u043f\u043e\u0440\u0430\u0434\u0443": 3440, "\u2581\u0432\u043e\u0434\u0443": 3441, "\u2581\u043f\u043e\u0431\u0430\u0447\u0438\u0432": 3442, "\u0442\u043a\u0438": 3443, "out": 3444, "\u2581realized": 3445, "\u2581\u0432\u0456\u0447\u043d\u043e": 3446, "\u2581\u0447\u043b\u0435\u043d\u0456\u0432": 3447, "\u2581\u0437\u0430\u0440\u0430\u0434\u0438": 3448, "\u2581paradise": 3449, "\u2581progress": 3450, "\u2581\u0457\u0441\u0442\u0438": 3451, "\u043e\u0432\u0430\u043d\u0456": 3452, "\u2581Messiah": 3453, "\u2581loyal": 3454, "\u2581\u0456\u043d\u043e\u0434\u0456": 3455, "\u2581\u0414\u0436": 3456, "\u2581\u0440\u0456\u0432\u0435\u043d\u044c": 3457, "\u2581reported": 3458, "\u2581\u0434\u0440\u0443\u0433\u0430": 3459, "\u2581\u043f\u0440\u043e\u0433\u0440\u0430\u043c\u0443": 3460, ".).": 3461, "\u2581\u042d\u0439": 3462, "\u0438\u044f": 3463, "\u044f\u043c\u0438": 3464, "\u2581\u0431\u0443\u0434\u0435\u0448": 3465, "\u2581\u043b\u0438\u0448": 3466, "\u2581\u043d\u043e\u043c\u0435\u0440": 3467, "go": 3468, "\u2581\u0432\u0438\u0437\u043d\u0430\u0447\u0438\u0442\u0438": 3469, "\u2581hair": 3470, "\u2581\u0434\u0443\u0445\u0443": 3471, "\u2581\u043f\u043e\u043a\u0430\u0437\u0443\u044e\u0442\u044c": 3472, "\u2581studying": 3473, "\u2581\u043f\u0438\u0448\u0435": 3474, "\u2581\u0436\u0443\u0440\u043d\u0430\u043b": 3475, "\u2581\u0437\u043e\u043a\u0440\u0435\u043c\u0430": 3476, "\u2581\u043f\u043e\u0434\u0456\u0431\u043d\u043e": 3477, "\u2581Should": 3478, "\u2581basic": 3479, "\u2581\u0427\u0430\u0441": 3480, "\u0445\u0438": 3481, "\u2581\u0439\u0434\u0435": 3482, "\u2581\u043d\u0430\u0434\u0456\u044f": 3483, "\u2581growing": 3484, "\u2581\u00a9": 3485, "\u2581Eve": 3486, "\u2581\u0433\u043e\u0432\u043e\u0440\u044f\u0442\u044c": 3487, "\u2581\u0441\u0442\u0440\u0430\u0436\u0434\u0430\u043d\u043d\u044f": 3488, "\u2581wine": 3489, "\u043e\u0437": 3490, "\u2581\u0414\u0443\u043c\u0430\u044e": 3491, "\u2581\u043f\u0440\u0438\u043d\u0430\u0439\u043c\u043d\u0456": 3492, "\u2581\u043a\u043e\u0436\u043d\u043e\u043c\u0443": 3493, "\u2581\u0441\u0442\u0430\u043d\u0456": 3494, "\u043b\u0430\u0441\u044c": 3495, "\u2581\u043f\u0440\u043e\u0440\u043e\u0446\u0442\u0432\u0430": 3496, "\u2581\u041f\u0440\u0430\u0432\u0434\u0430": 3497, "\u2581\u0454\u0434\u043d\u0430\u043d\u043d\u044f": 3498, "\u2581huge": 3499, "\u2581oil": 3500, "\u2581vision": 3501, "\u2581\u0434\u0443\u0445\u043e\u0432\u043d\u0456": 3502, "\u2581\u0434\u0456\u0437\u043d\u0430\u0442\u0438\u0441\u044f": 3503, "\u2581\u0432\u0456\u0440\u043d\u043e": 3504, "\u2581\u0441\u043f\u0440\u0430\u0432": 3505, "\u2581appreciation": 3506, "\u2581\u0442\u0430\u043a\u043e\u043c\u0443": 3507, "\u2581\u0447\u0430\u0441\u0442\u0438\u043d\u0443": 3508, "ig": 3509, "\u2581drive": 3510, "\u2581knowing": 3511, "\u0437\u0432\u0430\u0436\u0430\u044e\u0447\u0438": 3512, "\u2581fell": 3513, "\u2581accurate": 3514, "\u2581precious": 3515, "\u2581\u0437\u0431\u0435\u0440\u0456\u0433\u0430\u0442\u0438": 3516, "\u2581\u0433\u0440\u0438": 3517, "\u043e\u0436": 3518, "\u2581priests": 3519, "ING": 3520, "\u2581\u042f\u043a\u0431\u0438": 3521, "\u2581\u043f\u043e\u0437\u0430": 3522, "\u2581\u0436\u0435\u0440\u0442\u0432\u0443": 3523, "\u2581dangerous": 3524, "\u2581Though": 3525, "\u2581\u0441\u0438\u0441\u0442\u0435\u043c\u0430": 3526, "\u2581\u043e\u0431\u043b\u0438\u0447\u0447\u044f": 3527, "\u0433\u0430\u043d": 3528, "\u2581\u0437\u0430\u043b\u0435\u0436\u0438\u0442\u044c": 3529, "\u2581\u043c\u043e\u0440\u044f": 3530, "if": 3531, "\u2581\u0447\u0456\u0442\u043a\u043e": 3532, "\u2581billion": 3533, "\u2581\u0436\u0435\u0440\u0442\u0432\u0438": 3534, "\u2581La": 3535, "\u2581chosen": 3536, "\u2581correct": 3537, "\u2581teachings": 3538, "\u2581\u0440\u0443\u043a\u0443": 3539, "\u0440\u043e\u0441": 3540, "\u0446\u0438": 3541, "\u2581\u043d\u0435\u0433\u043e": 3542, "\u2581\u0441\u043f\u0430\u0441\u0456\u043d\u043d\u044f": 3543, "\u044e\u0432\u0430\u0442\u0438": 3544, "\u2581win": 3545, "\u2581Canada": 3546, "\u0437\u0443": 3547, "\u2581research": 3548, "\u043d\u0438\u043a\u0430": 3549, "\u2581agree": 3550, "\u0441\u0442\u0435\u0440": 3551, "\u2581easily": 3552, "\u2581recognize": 3553, "\u2581\u0448\u0456\u0441\u0442\u044c": 3554, "\u2581path": 3555, "\u2581High": 3556, "\u2581presence": 3557, "\u2581remove": 3558, "\u2581\u0404\u0440\u0443\u0441\u0430\u043b\u0438\u043c": 3559, "\u2581\u041f\u043e\u0447\u0435\u043c\u0443": 3560, "\u2581\u0432\u0456\u0434\u043e\u043c\u043e": 3561, "\u2581\u043f\u043e\u0440\u044f\u0434\u043a\u0443": 3562, "Jehovah": 3563, "\u2581note": 3564, "\u2581invited": 3565, "\u2581\u0411\u043e\u0436\u043e\u0457": 3566, "\u2581\u043d\u0430\u0432\u0447\u0430\u0442\u0438": 3567, "\u2581\u043f\u043e\u043b\u044f": 3568, "\u2581preach": 3569, "\u2581\u043c\u043e\u0436\u043b\u0438\u0432\u043e\u0441\u0442\u0456": 3570, "\u2581\u043f\u043e\u043b\u0456": 3571, "\u2581aren": 3572, "\u2581believed": 3573, "\u2581\u043c\u0456\u0441\u0442\u0438\u0442\u044c": 3574, "\u2581kings": 3575, "\u2581\u0432\u0456\u0439\u043d\u0430": 3576, "\u0441\u044c\u043a\u0456": 3577, "\u2581determined": 3578, "\u0440\u044f": 3579, "\u2581\u0434\u0456\u0439": 3580, "\u2581middle": 3581, "\u2581\u0432\u043b\u0430\u0434\u0443": 3582, "\u2581\u0448\u043b\u044e\u0431": 3583, "ary": 3584, "\u2581priest": 3585, "\u2581attack": 3586, "\u2581\u0441\u0443\u043c\u043b\u0456\u043d\u043d\u044f": 3587, "\u2581affect": 3588, "\u2581Ask": 3589, "\u2581attend": 3590, "\u2581\u043e\u0431\u0441\u0442\u0430\u0432\u0438\u043d\u0438": 3591, "\u2581options": 3592, "\u043a\u043b\u0430\u0434": 3593, "\u2581occasion": 3594, "me": 3595, "\u2581challenge": 3596, "\u2581\u043a\u043d\u0438\u0436\u043a\u0443": 3597, "\u2581minute": 3598, "\u2581wanna": 3599, "\u2581Love": 3600, "\u2581\u043d\u0435\u043c\u043e\u0432": 3601, "\u0443\u0439": 3602, "\u2581\u0420\u043e\u0437\u0433\u043b\u044f\u043d\u044c\u043c\u043e": 3603, "\u2581\u043e\u0441\u043d\u043e\u0432\u0456": 3604, "\u2581\u0447\u0438\u0442\u0430\u043d\u043d\u044f": 3605, "\u043e\u0432\u0430\u043d\u043e": 3606, "\u044f\u0437\u043a\u043e\u0432\u043e": 3607, "\u2581\u0432\u0438\u043a\u043e\u043d\u0430\u0442\u0438": 3608, "\u2581\u0432\u0438\u043c\u0430\u0433\u0430\u0454": 3609, "\u0430\u0446\u0456\u044e": 3610, "\u2581\u0441\u043a\u0430\u0437\u0430\u043b": 3611, "\u2581army": 3612, "\u2581blessings": 3613, "\u2581rules": 3614, "\u2581\u0432\u0456\u0434\u043f\u043e\u0432\u0456\u0432": 3615, "\u2581\u043a\u043e\u043c\u0443": 3616, "ac": 3617, "\u258117,": 3618, "\u2581cover": 3619, "our": 3620, "\u25817]": 3621, "\u2581fruit": 3622, "\u2581species": 3623, "\u2581\u0435\u043c\u0443": 3624, "\u2581established": 3625, "\u2581\u041f\u0456\u0437\u043d\u0456\u0448\u0435": 3626, "\u2581\u041d\u0456\u0445\u0442\u043e": 3627, "\u2581\u0433\u0440\u0443": 3628, "\u2581\u0437\u0440\u0435\u0448\u0442\u043e\u044e": 3629, "\u2581\u042d": 3630, "\u2581Dad": 3631, "\u2581average": 3632, "\u2581elder": 3633, "\u2581\u0432\u043b\u0430\u0434\u0438": 3634, "\u2581\u0436\u0443\u0440\u043d\u0430\u043b\u0443": 3635, "\u0435\u043d\u043e": 3636, "\u2581touch": 3637, "con": 3638, "\u2581happening": 3639, "ous": 3640, "\u2581\u0441\u0435\u0431\u044f": 3641, "\u043e\u0432\u0435": 3642, "\u2581drugs": 3643, "\u2581\u0421\u0435\u0440\u0435\u0434": 3644, "\u0441\u044c\u043a\u0438\u0445": 3645, "\u2581fuck": 3646, "\u2581\u0432\u0438\u0433\u043b\u044f\u0434\u0430\u0454": 3647, "\u2581\u0434\u0435\u0441\u044c": 3648, "\u2581\u0432\u0456\u0434\u043a\u0440\u0438\u0442\u0438": 3649, "\u2581\u0437\u0440\u043e\u0437\u0443\u043c\u0456\u0432": 3650, "\u2581\u0440\u043e\u0437\u0443\u043c\u0456\u043d\u043d\u044f": 3651, "\u2581\u043d\u0430\u0434\u043e": 3652, "\u2581\u043d\u0430\u0437\u0438\u0432\u0430\u044e\u0442\u044c": 3653, "\u2581crime": 3654, "\u2581goal": 3655, "\u2581gotta": 3656, "\u2581\u043b\u044e\u0431\u0438\u0442\u0438": 3657, "What": 3658, "X": 3659, "rs": 3660, "\u2581\u043f\u043e\u043b\u0435": 3661, "\u043a\u0435\u0440": 3662, "\u2581\u043f\u0440\u043e\u0442\u0435": 3663, "\u2581\u0445\u0432\u043e\u0440\u043e\u0431\u0438": 3664, "\u2581500": 3665, "\u2581uses": 3666, "\u2581pick": 3667, "li": 3668, "\u2581boys": 3669, "im": 3670, "\u2581higher": 3671, "\u2581patient": 3672, "\u2581danger": 3673, "\u2581mom": 3674, "\u2581object": 3675, "\u2581paper": 3676, "\u2581race": 3677, "ine": 3678, "\u2581\u0437\u0443\u0441\u0438\u043b\u043b\u044f": 3679, "\u2581\u0441\u0442\u0456\u043b\u044c\u043a\u0438": 3680, "os": 3681, "\u2581\u0456\u043d\u0448\u043e\u043c\u0443": 3682, "he": 3683, "\u2581\u0413\u0435\u0439": 3684, "ge": 3685, "\u2581\u0446\u0438\u043c\u0438": 3686, "\u2581images": 3687, "\u2581firm": 3688, "\u2581god": 3689, "\u2581\u043a\u0443\u0440": 3690, ":\"": 3691, "\u2581\u041b\u0438\u0448\u0435": 3692, "\u2581homes": 3693, "\u2581\u042e": 3694, "\u0449\u043e": 3695, "\u2581parent": 3696, "\u2581\u0434\u043e\u0431\u0440\u043e\u0457": 3697, "\u2581integrity": 3698, "\u2581youths": 3699, "\u2581\u0443\u0447\u043d\u0456": 3700, "\u2581\u0437\u043d\u0430\u043b\u0430": 3701, "\u2581\u043a\u0435\u0440\u0443\u0432\u0430\u043d\u043d\u044f": 3702, "\u0441\u043f": 3703, "\u2581\u0434\u043e\u0432\u0456\u0440": 3704, "\u2581\u0441\u0438\u0442\u0443\u0430\u0446\u0456\u0457": 3705, "pe": 3706, "\u2581Nothing": 3707, "\u2581\u041b": 3708, "\u2581\u0447\u0438\u0441\u043b\u0456": 3709, "tic": 3710, "\u0440\u043e\u0437": 3711, "\u2581\u0440\u043e\u0437\u0434\u0456\u043b\u0456": 3712, "\u2581ransom": 3713, "\u2581\u041e\u0442\u0446\u044f": 3714, "\u043c\u043e\u0432": 3715, "\u2581code": 3716, "\u0435\u0437": 3717, "\u043a\u043b\u044e\u0447": 3718, "\u2581\u043a\u0438\u043c": 3719, "\u0441\u043b\u0430": 3720, "\u2581protection": 3721, "\u2581\u0447\u043b\u0435\u043d\u0438": 3722, "\u2581\u0440\u0443\u043a": 3723, "\u2581\u044f\u0441\u043d\u043e": 3724, "\u2581\u043d\u0430\u0437\u0438\u0432\u0430\u0454\u0442\u044c\u0441\u044f": 3725, "\u2581\u043f\u0440\u043e\u0440\u043e\u043a": 3726, "\u2581recently": 3727, "\u2581\u0432\u0440\u0435\u043c\u044f": 3728, "\u2581\u0437\u0430\u043f\u0438\u0442\u0430\u0432": 3729, "\u2581\u0440\u0430\u0437\u0456": 3730, "\u043d\u044b": 3731, "\u2581\u0432\u0438\u044f\u0432\u043b\u044f\u0454": 3732, "\u2581\u0437\u0440\u043e\u0431\u0438\u043b\u0430": 3733, "\u2581\u043c\u0438\u0441\u043b\u0435\u043d\u043d\u044f": 3734, "\u2581evening": 3735, "\u2581mental": 3736, "\u25812000": 3737, "\u2581\u043e\u0431\u0440\u0430\u0442\u0438": 3738, "\u2581prepared": 3739, "\u043d\u043a\u0438": 3740, "\u0430\u0442\u0438\u0441\u044f": 3741, "\u044f\u0445": 3742, "\u2581\u043c\u043e\u0454\u0457": 3743, "\u2581piece": 3744, "\u2581loss": 3745, "\u2581\u0434\u0438\u0442\u0438\u043d\u0438": 3746, "!\"": 3747, "\u2581\u0440\u043e\u0437\u0434\u0456\u043b": 3748, "\u043c\u0456\u0440": 3749, "\u2581\u0441\u0442\u0440": 3750, "\u2581\u0440\u0435\u043b\u0456\u0433\u0456\u0439\u043d\u0456": 3751, "\u2581\u0442\u0432\u043e\u0457": 3752, "\u258119,": 3753, "\u2581praise": 3754, "\u2581wild": 3755, "10": 3756, "per": 3757, "\u0430\u0436": 3758, "\u0451": 3759, "\u2581yourselves": 3760, "\u2581\u0432\u0430\u0448\u043e\u0457": 3761, "\u2581\u0433\u043b\u0438\u0431\u043e\u043a\u043e": 3762, "\u0438\u043a": 3763, "\u2581settings": 3764, "\u2581\u0437\u043d\u0430\u0435\u0448\u044c": 3765, "\u2581\u043f\u043e\u0440\u044f\u0434\u043a\u0435": 3766, "\u2581relative": 3767, "\u0446\u044e": 3768, "\u2581\u0432\u0438\u0449\u0435": 3769, "\u2581regularly": 3770, "\u2581\u0431\u0430\u0447\u0438\u0442\u0435": 3771, "\u2581\u0456\u0441\u0442\u043e\u0440\u0456\u044f": 3772, "\u2581series": 3773, "\u2581\u0432\u0441\u0442\u0430\u043d\u043e\u0432\u0438\u0442\u0438": 3774, "\u2581\u043d\u0430\u0441\u0442\u0443\u043f\u043d\u043e\u0433\u043e": 3775, "\u0432\u0430\u043d\u043d\u044f": 3776, "\u2581\u0434\u044f\u043a\u0443\u044e": 3777, "\u2581\u043c\u0430\u0439\u0431\u0443\u0442\u043d\u044c\u043e\u043c\u0443": 3778, "\u2581empty": 3779, "\u2581kid": 3780, "\u2581\u043d\u0430\u0448\u0438\u043c": 3781, "\u2581convention": 3782, "\u2581benefits": 3783, "\u2581\u043f\u0440\u043e\u0431\u043b\u0435\u043c\u0443": 3784, "pa": 3785, "\u2581;": 3786, "\u2581\u0441\u0443\u043c": 3787, "\u2581Nevertheless": 3788, "like": 3789, "\u2581Others": 3790, "\u2581ideas": 3791, "\u2581weight": 3792, "\u2581\u0441\u043a\u043e\u0440\u0438\u0441\u0442\u0430\u0442\u0438\u0441\u044f": 3793, "\u2581aware": 3794, "\u2581\u043c\u043e\u0432\u0443": 3795, "\u043f\u0435\u0440\u0435": 3796, "\u2581Every": 3797, "\u2581putting": 3798, "\u2581\u043c\u0430\u0448\u0438\u043d\u0443": 3799, "\u043e\u0432\u043e\u0433\u043e": 3800, "\u2581economic": 3801, "mo": 3802, "\u0454\u0440": 3803, "\u2581focus": 3804, "\u0438\u0442\u0438\u0441\u044c": 3805, "If": 3806, "\u2581treatment": 3807, "\u2581\u041c\u0435": 3808, "\u2581existence": 3809, "\u2581\u043a\u0456\u043b\u044c\u043a\u043e\u0441\u0442\u0456": 3810, "\u043d\u044b\u0435": 3811, "\u2581\u043f\u0456\u0434\u0442\u0440\u0438\u043c\u0443\u0432\u0430\u0442\u0438": 3812, "\u2581angel": 3813, "\u2581\u0456\u0441\u0442\u043e\u0440\u0456\u044e": 3814, "\u2581particularly": 3815, "\u2581\u0434\u043e\u0440\u043e\u0433\u0438": 3816, "\u2581practical": 3817, "\u2581\u0441\u0442\u0430\u044e\u0442\u044c": 3818, "\u2581Move": 3819, "\u2581terms": 3820, "\u2581noted": 3821, "\u2581rate": 3822, "\u0432\u0443": 3823, "\u2581brings": 3824, "\u258123]": 3825, "\u2581dad": 3826, "\u258117]": 3827, "\u2581\u0422\u0432\u043e\u0440\u0446\u044f": 3828, "\u2581\u0445\u0440\u0438\u0441\u0442\u0438\u044f\u043d\u0441\u044c\u043a\u0456": 3829, "\u2581believers": 3830, "\u2581screen": 3831, "\u2581surface": 3832, "\u2581\u0414\u0430\u0432\u0438\u0434\u0430": 3833, "land": 3834, "\u043c\u0430\u0433\u0430": 3835, "\u2581\u0433\u0434\u0435": 3836, "\u2581\u0441\u0442\u0430\u043d\u0443": 3837, "No": 3838, "\u2581300": 3839, "\u2581De": 3840, "\u2581root": 3841, "\u2581\u0412\u0438\u043b\u0443\u0447\u0438\u0442\u0438": 3842, "\u2581\u041d\u0435\u043c\u0430\u0454": 3843, "\u2581\u0442\u043e\u0436\u0435": 3844, "\u2581hundreds": 3845, "\u2581\u0414\u0438\u044f\u0432\u043e\u043b": 3846, "\u2581\u0431\u0443\u0434\u0438\u043d\u043e\u043a": 3847, "\u2581join": 3848, "\u2581\u041c\u0430\u0440": 3849, "00": 3850, "IN": 3851, "\u043b\u043e\u0441\u044f": 3852, "\u0442\u0435\u0441\u044f": 3853, "\u2581\u0447\u0443\u0432": 3854, "\u0419": 3855, "\u043e\u0432\u0443": 3856, "\u2581Make": 3857, "\u2581Moreover": 3858, "\u2581steps": 3859, "\u2581\u0447\u043e\u043b\u043e\u0432\u0456\u043a\u043e\u043c": 3860, "000": 3861, "\u043d\u0456\u043c": 3862, "\u258122:": 3863, "\u2581\u0410\u0433\u0430": 3864, "\u2581\u043d\u0430\u0440\u043e\u0434\u0438": 3865, "\u2581\u0440\u043e\u0437\u0432\u0438\u0432\u0430\u0442\u0438": 3866, "ke": 3867, "\u2581seeking": 3868, "\u2581\u0412\u0430\u0448": 3869, "\u2581\u043d\u0430\u0437\u0432\u043e\u044e": 3870, "\u0431\u0435\u0440": 3871, "\u2581enjoyed": 3872, "\u2581\u0417\u0440\u0435\u0448\u0442\u043e\u044e": 3873, "\u2581\u0421\u0432\u043e\u0433\u043e": 3874, "\u2581\u043b\u0456\u043f\u0448\u0435": 3875, "\u2581\u043f\u0440\u043e\u0446\u0435\u0441": 3876, "\u2581\u0456\u0437\u0440\u0430\u0457\u043b\u044c\u0442\u044f\u043d\u0438": 3877, "\u2581imitate": 3878, "\u2581personality": 3879, "\u2581blue": 3880, "\u2581\u0412\u0430\u0441": 3881, "\u043d\u043e\u043c": 3882, "\u0443\u043c": 3883, "\u2581dark": 3884, "\u2581\u041c\u0456": 3885, "\u2581spoken": 3886, "\u2581\u0442\u043e\u0431\u043e\u0439": 3887, "\u258118,": 3888, "\u258123.": 3889, "\u2581Times": 3890, "\u2581messages": 3891, "\u2581\u0430\u0434\u0440\u0435\u0441\u0443": 3892, "\u2581bar": 3893, "\u043d\u0435\u0431\u0443\u0434\u044c": 3894, "\u2581interests": 3895, "\u043b\u0435\u0442": 3896, "\u2581\u0449\u0438\u0440\u043e": 3897, "\u2581workers": 3898, "\u2581\u0437\u043c\u043e\u0433\u0443": 3899, "\u2581mate": 3900, "\u2581appears": 3901, "\u2581\u0435\u0449\u0451": 3902, "\u2581Boston": 3903, "\u2581\u0432\u043f\u043b\u0438\u0432\u0430\u0454": 3904, "\u2581\u043d\u0430\u043f\u0435\u0432\u043d\u043e": 3905, "For": 3906, "\u2581international": 3907, "\u2581\u0417\u0430\u043a\u043e\u043d": 3908, "\u0421\u043f\u043e\u043b\u0443\u0447\u0435\u043d\u0438\u0445": 3909, "\u0441\u044c\u043a\u043e\u0457": 3910, "\u2581\u0434\u0443\u0448\u0456": 3911, "\u2581\u0440\u0443\u0445": 3912, "\u2581\u0447\u0430\u0441\u0456": 3913, "\u2581drinking": 3914, "\u2581\u043a\u043e\u043b\u0456\u0440": 3915, "\u2581\u041f\u0435\u0440\u0435\u043a\u043b\u0430\u0434": 3916, "ant": 3917, "\u0441\u043e": 3918, "\u2581\u043a\u0456\u043d\u0446\u0456": 3919, "\u2581careful": 3920, "\u2581literature": 3921, "\u043b\u043e\u0441\u044c": 3922, "\u2581\u0434\u0430\u0432\u043d\u043e": 3923, "\u2581\u0437\u0431\u0435\u0440\u0435\u0433\u0442\u0438": 3924, "\u2581\u0440\u043e\u0437\u043c\u0456\u0440": 3925, "\u2581studies": 3926, "\u2581tonight": 3927, "\u043d\u0434": 3928, "\u2581causes": 3929, "\u2581\u0441\u0435\u0440\u0439\u043e\u0437\u043d\u043e": 3930, "ep": 3931, "\u2581court": 3932, "\u2581island": 3933, "\u2581TV": 3934, "\u2581\u0421\u0430\u043d": 3935, "\u2581\u0442\u0430\u043a\u043e\u044e": 3936, "\u258115]": 3937, "\u2581revealed": 3938, "\u2581\u041c\u0430": 3939, "\u2581\u0434\u0435\u0440\u0435\u0432": 3940, "\u2581\u043d\u0430\u0441\u0442\u0443\u043f\u043d\u0456": 3941, "\u2581\u043e\u0447\u0430\u0445": 3942, "\u2581\u043f\u0430\u0440\u0430": 3943, "Do": 3944, "\u2581\u0432\u0435\u0434\u0435": 3945, "\u2581\u0433\u043e\u0432\u043e\u0440\u0438\u043b\u0438": 3946, "\u2581Listen": 3947, "\u2581emotional": 3948, "\u2581respond": 3949, "\u2581closer": 3950, "\u2581leading": 3951, "\u2581\u0434\u0443\u0445\u0430": 3952, "\u2581\u043d\u0438\u0447\u0435\u0433\u043e": 3953, "\u0435\u043d\u0438\u044f": 3954, "\u2581calling": 3955, "\u2581details": 3956, "ty": 3957, "\u2581gods": 3958, "\u2581\u0410\u0432\u0440\u0430\u0430\u043c": 3959, "\u2581express": 3960, "\u2581planet": 3961, "\u2581rain": 3962, "\u2581\u043c\u0430": 3963, "\u2581\u0441\u043b\u0443\u0433": 3964, "\u0441\u0442\u0440\u043e": 3965, "\u043f\u0438\u0441": 3966, "\u2581\u0456\u043c\u0435\u043d\u0456": 3967, "\u2581Edit": 3968, "\u2581lines": 3969, "\u2581\u041c\u043e\u0457": 3970, "\u043e\u043d\u0430": 3971, "\u2581dream": 3972, "\u043a\u0440\u0430": 3973, "\u2581Christianity": 3974, "\u2581entered": 3975, "\u2581reached": 3976, "\u2581worse": 3977, "\u2581\u0433\u0440\u0443\u043f\u0430": 3978, "\u2581\u043b\u044e\u0434\u0438\u043d\u0456": 3979, "\u043b\u043e\u0432": 3980, "\u2581glad": 3981, "\u0428": 3982, "\u044e\u0441\u044c": 3983, "\u2581dollars": 3984, "\u2581cool": 3985, "\u2581mode": 3986, "\u2581directly": 3987, "\u2581wide": 3988, "\u2581\u0432\u0438\u0434": 3989, "\u2581\u0441\u0442\u0430\u0442\u0442\u044e": 3990, "\u2581sacred": 3991, "\u2581\u041d": 3992, "\u2581North": 3993, "\u2581\u0440\u0435\u043b\u0456\u0433\u0456\u044f": 3994, "\u2581concerned": 3995, "\u2581encouraged": 3996, "\u2581green": 3997, "\u2581mountain": 3998, "\u2581\u0433\u043e\u0434\u0438\u043d\u0438": 3999, "\u2581\u0437\u0440\u043e\u0431\u0438\u0442\u044c": 4000, "\u2581\u0445\u0440\u0438\u0441\u0442\u0438\u044f\u043d\u0438\u043d": 4001, "\u2581notes": 4002, "\u2581\u0434\u0440\u0443\u0436\u0438\u043d\u043e\u044e": 4003, "\u0435\u043d\u0430": 4004, "\u2581drop": 4005, "\u2581\u043f\u0440\u0430\u0432\u043b\u0456\u043d\u043d\u044f": 4006, "\u2581stopped": 4007, "\u2581\u0432\u0438\u0431\u043e\u0440\u0443": 4008, "\u2581England": 4009, "\u2581\u043a\u043e\u0440": 4010, "\u0430\u0440": 4011, "\u0445\u043e\u0434\u0438": 4012, "\u2581lt": 4013, "\u2581\u041a\u043e\u0436\u0435\u043d": 4014, "ting": 4015, "\u2581\u043f\u0430\u0440\u0430\u043c\u0435\u0442\u0440": 4016, "\u2581\u0442\u0435\u043c": 4017, "ized": 4018, "\u2581responsible": 4019, "\u2581\u0411\u0456\u043b\u044c\u0448\u0456\u0441\u0442\u044c": 4020, "\u2581\u041a\u043e\u043d": 4021, "He": 4022, "\u2581acts": 4023, "\u2581dedicated": 4024, "\u2581included": 4025, "\u2581\u043f\u043e\u0433\u043e\u0432\u043e\u0440\u0438\u0442\u0438": 4026, "ga": 4027, "\u02b9": 4028, "\u2581National": 4029, "\u2581\u0427\u0438\u043c": 4030, "LA": 4031, "\u2581finished": 4032, "\u2581servant": 4033, "\u2581\u0454\u0432\u0440\u0435\u0457\u0432": 4034, "\u2581unique": 4035, "\u2581\u0441\u0438\u0441\u0442\u0435\u043c\u0443": 4036, "j": 4037, "\u2581contrast": 4038, "\u2581\u0431\u0456\u043b\u044c\u0448\u043e\u0441\u0442\u0456": 4039, "\u2581\u0434\u0438\u0442\u0438\u043d\u0443": 4040, "\u043b\u044e\u0432\u0430\u0442\u0438": 4041, "\u2581welcome": 4042, "\u2581\u0433\u043e\u043b\u043e\u0434": 4043, "\u2581Other": 4044, "\u2581mass": 4045, "\u2581\u0432\u0456\u0440\u0448\u0456": 4046, "\u2581fulfilled": 4047, "\u2581\u043c\u043e": 4048, "\u2581\u043e\u0434\u043d\u0456": 4049, "\u2581community": 4050, "\u2581popular": 4051, "\u043d\u0430\u044f": 4052, "\u2581battle": 4053, "\u2581concerning": 4054, "\u2581paid": 4055, "\u2581\u043b\u044e\u0431": 4056, "\u2581psalmist": 4057, "\u2581stress": 4058, "\u2581\u043a\u043b\u0430\u0441": 4059, "\u258134": 4060, "\u043c\u043e\u0441\u044c": 4061, "\u2581song": 4062, "\u2581\u043b\u044e\u0431\u043b\u044f\u0442\u044c": 4063, "\u2581\u043f\u0440\u0438\u0447\u0438\u043d\u0430": 4064, "\u2581foot": 4065, "\u2581wall": 4066, "\u2581\u043a\u043e\u0442\u0440\u0430": 4067, "\u2581answered": 4068, "\u2581listening": 4069, "\u2581version": 4070, "\u2581\u0440\u0430\u0434\u0438": 4071, "\u2581carried": 4072, "\u2581crazy": 4073, "\u2581survive": 4074, "\u2581\u0434\u043e\u0431\u0440\u0438\u0439": 4075, "\u043d\u0435\u0441": 4076, "\u2581\u043f\u0440\u0435\u0434": 4077, "\u2581\u0456\u0434\u0435\u044f": 4078, "\u2581shot": 4079, "\u2581\u0434\u043e\u043c\u0456": 4080, "\u2581Never": 4081, "\u2581traveling": 4082, "\u2581useful": 4083, "\u2581\u043b\u0456\u043a\u0443\u0432\u0430\u043d\u043d\u044f": 4084, "\u2581straight": 4085, "\u2581\u0434\u043e\u043f\u043e\u043c\u0430\u0433\u0430\u044e\u0442\u044c": 4086, "\u2581w": 4087, "\u2581\u0456\u0441\u043d\u0443\u0432\u0430\u043d\u043d\u044f": 4088, "\u0434\u0430\u043b\u0456": 4089, "\u043f\u043e\u0432": 4090, "\u2581\u0433\u043d\u0456\u0432": 4091, "\u2581European": 4092, "\u2581\u041f\u043e\u043a\u0430\u0437\u0430\u0442\u0438": 4093, "\u2581\u0433\u043e\u0442\u043e\u0432\u0456": 4094, "\u2581\u0426\u0430\u0440": 4095, "\u2581\u043c\u0435\u0434": 4096, "\u2581\u043c\u0456\u0441\u0442": 4097, "end": 4098, "\u0456\u0437": 4099, "\u2581\u043f\u043e\u043b\u044f\u0433\u0430\u0454": 4100, "\u2581discipline": 4101, "\u2581\u0437\u0430\u0441": 4102, "\u0431\u0443\u0434": 4103, "\u043f\u0443\u0441\u0442\u0438": 4104, "\u2581section": 4105, "\u2581\u0442\u0440\u0443\u0434\u043d\u043e\u0449\u0456": 4106, "\u2581enemy": 4107, "\u2581\u0432\u0435\u043b\u0438\u043a\u0438\u0445": 4108, "\u2581London": 4109, "\u2581\u0432\u043a\u0430\u0437\u0430\u0442\u0438": 4110, "\u2581\u0434\u043e\u043a\u0430\u0437": 4111, "\u044d": 4112, "\u2581Paradise": 4113, "\u2581\u0421\u043e\u043b\u043e\u043c\u043e\u043d": 4114, "\u2581lying": 4115, "\u2581\u0434\u0443\u043c\u0430\u043b\u0430": 4116, "\u2581\u043f\u0430\u0440\u0430\u043c\u0435\u0442\u0440\u0456\u0432": 4117, "\u0418": 4118, "\u2581notice": 4119, "\u2581\u0433\u043e\u0442\u043e\u0432\u0438\u0439": 4120, "\u2581\u043f\u0440\u0438\u0439\u043d\u044f\u0442\u0438": 4121, "\u2581\u0448\u0432\u0438\u0434\u0448\u0435": 4122, "\u2581expressed": 4123, "\u2581\u0440\u043e\u0431\u043e\u0442\u0456": 4124, "\u2581\u0447\u0438\u043d\u0438\u0442\u0438": 4125, "\u0424": 4126, "ite": 4127, "\u2581forces": 4128, "\u2581\u0437\u0430\u043f\u0438\u0441\u0443": 4129, "\u0442\u043e\u043c": 4130, "\u2581persecution": 4131, "\u2581approach": 4132, "\u2581effects": 4133, "\u0433\u0435": 4134, "\u2581claim": 4135, "\u2581\u043d\u043e\u0432\u0435": 4136, "\u2581\u043e\u0440": 4137, "\u043c\u0435\u043d\u0442": 4138, "\u2581skin": 4139, "\u2581\u0434\u0456\u043b\u0430": 4140, "\u2581\u043b\u0435\u0442": 4141, "\u2581\u0446\u0430\u0440\u0441\u0442\u0432\u0430": 4142, "\u2581\u0437\u043c\u043e\u0436\u0435": 4143, "\u2581reality": 4144, "\u2581\u043d\u0430\u0442\u043e\u0432\u043f": 4145, "great": 4146, "\u043f\u0435": 4147, "\u2581judge": 4148, "\u2581\u043a\u043d\u0438\u0433\u0430": 4149, "\u043e\u0442": 4150, "\u2581Mom": 4151, "\u2581\u0431\u0430\u0440": 4152, "\u2581\u0432\u0438\u043f\u0430\u0434\u043e\u043a": 4153, "\u2581\u0456\u043d\u0448\u0443": 4154, "\u2581student": 4155, "\u2581\u043f\u0440\u0438\u0439\u0448\u043b\u0438": 4156, "\u2581Ezekiel": 4157, "\u2581bread": 4158, "\u2581\u043f\u043e\u0433\u0430\u043d\u043e": 4159, "\u2581\u0441\u0442\u0430\u0432\u043b\u0435\u043d\u043d\u044f": 4160, "\u0430\u0432\u0441\u044f": 4161, "\u2581scientists": 4162, "\u2581\u0445\u0440\u0430\u043c": 4163, "\u2581bringing": 4164, "\u2581Soon": 4165, "\u2581background": 4166, "\u2581\u043a\u043b\u0456\u0442\u0438\u043d": 4167, "\u2581\u043d\u0435\u0437\u0430\u0431\u0430\u0440\u043e\u043c": 4168, "\u2581\u043f\u0440\u0438\u043d\u0446\u0438\u043f\u0438": 4169, "\u0440\u0456\u0437": 4170, "\u2581+": 4171, "\u2581Sometimes": 4172, "\u2581l": 4173, "\u2581tab": 4174, "\u2581\u043f\u0440\u043e\u0440\u043e\u0446\u0442\u0432\u043e": 4175, "\u2581Internet": 4176, "\u2581declared": 4177, "\u2581endure": 4178, "\u2581generation": 4179, "\u2581Judah": 4180, "\u2581\u0432\u0438\u0433\u043b\u044f\u0434": 4181, "ating": 4182, "\u2581configuration": 4183, "\u2581\u0434\u0440\u0443\u0437\u0456": 4184, "\u2581\u0437\u043e": 4185, "\u2581hearing": 4186, "\u2581heavy": 4187, "\u2581speed": 4188, "\u2581standard": 4189, "\u2581\u043c\u043e\u0454\u043c\u0443": 4190, "\u2581\u0440\u043e\u0437\u0443\u043c\u0456\u044e": 4191, "\u2581\u0457\u0445\u043d\u044f": 4192, "\u2581\u043c\u0435\u0442\u0440\u0456\u0432": 4193, "+": 4194, "\u2581\u0440\u043e\u0437\u0443\u043c\u0443": 4195, "\u043f\u0430\u0440": 4196, "\u2581\u043f\u043e\u0434\u0456\u0431\u043d\u0456": 4197, "\u2581\u0445\u0440\u0438\u0441\u0442\u0438\u044f\u043d\u0430\u043c": 4198, "\u2581\u043f\u0440\u0438\u0454\u043c\u043d\u043e": 4199, "\u2581\u043f\u0435\u0440": 4200, "\u2581\u0457\u0436\u0456": 4201, "\u2581translation": 4202, "\u2581village": 4203, "\u2581\u0414\u043e\u0434\u0430\u0442\u0438": 4204, "\u0446\u044f\u043c\u0438": 4205, "\u2581items": 4206, "\u2581press": 4207, "\u2581\u0413\u0440\u0430": 4208, "\u2581\u0420\u0443": 4209, "\u2581\u0433": 4210, "\u2581\u0447\u0430\u0441\u0456\u0432": 4211, "\u0430\u044f": 4212, "\u044f\u0442\u044c\u0441\u044f": 4213, "\u0438\u043b\u0430\u0441\u044f": 4214, "\u0447\u043a\u0430": 4215, "\u2581\u041e\u0434\u043d\u043e\u0433\u043e": 4216, "\u2581\u043d\u043e\u0433\u0438": 4217, "\u2581expected": 4218, "\u2581stars": 4219, "12": 4220, "\u2581distance": 4221, "\u2581suffered": 4222, "\u2581\u0411\u0430": 4223, "\u2581Children": 4224, "\u2581\u0441\u0442\u0430\u043d\u0435\u0442\u044c\u0441\u044f": 4225, "\u2581creatures": 4226, "\u043c\u0430\u043b\u043e": 4227, "\u2581\u0417\u0430\u043c\u0456\u0441\u0442\u044c": 4228, "\u2581\u043d\u043e\u0440\u043c": 4229, "\u2581\u043a\u043d\u043e\u043f\u043a\u043e\u044e": 4230, "\u0447\u043d\u043e": 4231, "\u2581Ma": 4232, "\u2581obey": 4233, "\u2581youth": 4234, "\u2581warm": 4235, "\u2581\u043f\u043e\u044f\u0441\u043d\u0438\u0432": 4236, "po": 4237, "\u2581slow": 4238, "\u2581thanks": 4239, "\u2581\u0442\u0432\u043e\u044e": 4240, "\u2581\u0433\u043e\u0440\u0438": 4241, "\u041d\u0406": 4242, "\u2581mercy": 4243, "\u2581seed": 4244, "\u2581\u0434\u0430\u0441\u0442\u044c": 4245, "da": 4246, "\u2581deeply": 4247, "\u2581escape": 4248, "\u043b\u0435\u043d\u0456": 4249, "\u0449\u0435\u043d": 4250, "\u2581\u0430\u0434\u0440\u0435\u0441": 4251, "\u2581\u0441\u043b\u0443\u0436\u0431\u0438": 4252, "\u2581British": 4253, "\u2581India": 4254, "\u2581produced": 4255, "\u2581\u0432\u0447\u0438\u043d\u043a\u0438": 4256, "\u2581\u0441\u043b\u0443\u0445\u0430\u0442\u0438": 4257, "\u0456\u043c": 4258, "\u258124.": 4259, "\u2581Nations": 4260, "\u2581measure": 4261, "\u2581teachers": 4262, "\u2581\u0436\u0443\u0440\u043d\u0430\u043b\u0456": 4263, "\u2581\u0456\u0437\u0440\u0430\u0457\u043b\u044c\u0442\u044f\u043d": 4264, "\u0438\u0448": 4265, "\u2581Mother": 4266, "\u2581discovered": 4267, "\u2581lower": 4268, "\u2581\u0431\u0443\u0434\u0438\u043d\u043a\u0443": 4269, "\u2581\u043c\u0443\u0441\u0438\u043c\u043e": 4270, "\u2581%2": 4271, "\u2581neighbor": 4272, "\u2581\u0432\u043e\u0434\u0430": 4273, "\u2581\u043e\u043f": 4274, "\u2581destroy": 4275, "\u2581\u041f\u0435\u0442\u0440\u0430": 4276, "\u2581\u0431\u0456\u043b\u044c": 4277, "\u2581occur": 4278, "\u2581\u0440\u0435\u0437\u0443\u043b\u044c\u0442\u0430\u0442\u0438": 4279, "\u044f\u0437": 4280, "\u2581\u041f\u041e": 4281, "\u2581\u0440\u043e\u0437\u0443\u043c\u0456\u0442\u0438": 4282, "\u0430\u0442": 4283, "\u2581street": 4284, "\u2581\u0434\u043e\u0434\u0430\u0442\u0438": 4285, "\u2581caught": 4286, "\u2581device": 4287, "\u2581Matt": 4288, "\u2581Young": 4289, "ex": 4290, "\u0443\u0454\u043c\u043e": 4291, "\u2581square": 4292, "\u043a\u0430\u0432": 4293, "\u2581coffee": 4294, "\u2581\u0443\u043d\u0438\u043a\u0430\u0442\u0438": 4295, "\u2581bought": 4296, "\u2581writer": 4297, "\u2581ye": 4298, "\u2581\u0432\u0438\u044f\u0432\u0438\u0432": 4299, "\u2581\u0432\u0456\u0446\u0456": 4300, "\u2581pleasure": 4301, "\u2581\u0434\u0438": 4302, "\u0442\u043e\u0432": 4303, "\u2581\u0434\u043e\u0437\u0432\u043e\u043b\u044f\u0454": 4304, "\u2581Note": 4305, "\u2581birds": 4306, "\u2581beliefs": 4307, "\u2581missionary": 4308, "\u2581requires": 4309, "\u2581\u0432\u0432\u0430\u0436\u0430\u0442\u0438": 4310, "\u2581ship": 4311, "\u043c\u0435\u043c\u043e": 4312, "\u2581pattern": 4313, "\u2581\u0434\u0430\u0432\u0430\u0439\u0442\u0435": 4314, "line": 4315, "\u0430\u043d": 4316, "\u2581\u0410\u0434\u0436\u0435": 4317, "\u2581\u041a\u0442\u043e": 4318, "\u2581\u043c\u043e\u0432\u0430": 4319, "\u258138": 4320, "\u2581Sea": 4321, "\u2581drug": 4322, "\u2581wars": 4323, "\u2581\u041d\u0435\u0437\u0432\u0430\u0436\u0430\u044e\u0447\u0438": 4324, "\u0446\u0456\u0457": 4325, "\u2581carefully": 4326, "\u043e\u0432\u0430\u043d\u0438\u0439": 4327, "\u2581\u043e\u0431\u0441\u0442\u0430\u0432\u0438\u043d": 4328, "\u2581\u043e\u0434\u043d\u0456\u0454\u0457": 4329, "\u2581\u0442\u0435\u0440\u0438\u0442\u043e\u0440\u0456\u0457": 4330, "\u043a\u0430\u0437": 4331, "\u2581\u0440\u0430\u0434\u0456\u0441\u0442\u044e": 4332, "\u0434\u0436": 4333, "\u043d\u0433": 4334, "\u2581none": 4335, "\u2581store": 4336, "\u2581\u0432\u043f\u0435\u0440\u0448\u0435": 4337, "\u2581\u043f\u043e\u0434\u0456\u0439": 4338, "\u0441\u0442\u0440\u0430": 4339, "\u2581\u0422\u043e\u043c\u043e\u043c": 4340, "\u2581\u0432\u0438\u0441\u043e\u043a\u043e": 4341, "\u2581\u0431\u0430\u0448\u0442\u0438": 4342, "\u2581\u0431\u044b\u043b\u0438": 4343, "\u043c\u0430\u0440": 4344, "\u2581behalf": 4345, "\u2581\u0437\u0433\u043e\u0434\u043e\u043c": 4346, "\u0414\u0438\u0432\u0456\u0442\u044c\u0441\u044f": 4347, "\u2581Al": 4348, "\u2581http": 4349, "\u2581sitting": 4350, "\u2581\u043f\u0440\u0438\u0439\u0442\u0438": 4351, "\u2581limited": 4352, "\u2581\u0442\u0432\u043e\u0454": 4353, "\u2581blessed": 4354, "ha": 4355, "\u25819]": 4356, "\u2581bottom": 4357, "\u2581\u0421\u043e": 4358, "\u2581\u0432\u0430\u0448\u043e\u043c\u0443": 4359, "\u2581\u043a\u0430\u0436\u0443": 4360, "0": 4361, "This": 4362, "\u042d": 4363, "we": 4364, "\u2581flock": 4365, "\u2581response": 4366, "\u2581observed": 4367, "\u2581encourage": 4368, "\u2581successful": 4369, "\u2581\u0432\u043b\u0430\u0441\u043d\u0435": 4370, "\u2581cancer": 4371, "\u2581continues": 4372, "\u2581impossible": 4373, "\u2581\u043a\u0430": 4374, "\u2581\u0441\u0432\u044f\u0442\u043e\u0433\u043e": 4375, "\u043d\u043e\u043a": 4376, "\u2581forms": 4377, "\u0432\u0430\u0440": 4378, "\u2581starting": 4379, "\u2581\u041b\u0435": 4380, "\u043f\u043e\u0432\u0456": 4381, "\u2581Jacob": 4382, "\u2581\u0414\u0456\u0457": 4383, "\u2581\u041a\u0443": 4384, "\u2581\u0437\u0430\u0432": 4385, "\u2581opening": 4386, "\u2581statement": 4387, "\u2581\u0434\u0430\u044e\u0442\u044c": 4388, "\u2581guidance": 4389, "\u2581\u0457\u0436\u0443": 4390, "\u2581associated": 4391, "\u2581prevent": 4392, "\u2581\u0441\u0442\u043e\u0440\u0456\u043d\u043a\u0430\u0445": 4393, "\u0448\u043a\u0438": 4394, "\u2581accounts": 4395, "\u2581\u041b\u0443\u043a\u0438": 4396, "\u2581\u043e\u0434": 4397, "\u2581\u0441\u0432\u044f\u0442\u0438\u0439": 4398, "\u2581location": 4399, "\u2581travel": 4400, "\u2581\u0449\u043e\u0439\u043d\u043e": 4401, "\u2581letters": 4402, "\u2581style": 4403, "\u2581\u0414\u0430\u0439": 4404, "\u2581\u0441\u0438\u043b\u043e\u044e": 4405, "\u2581nine": 4406, "\u2581\u043a\u0440\u043e\u043a": 4407, "di": 4408, "\u2581School": 4409, "\u2581issues": 4410, "\u0446\u0456\u044e": 4411, "\u2581\u043f\u0440\u0438\u0439\u043c\u0430\u0442\u0438": 4412, "\u2581\u0440\u0456\u0432\u043d\u044f": 4413, "\u2581\u0441\u0443\u043c\u043d\u0456\u0432\u0443": 4414, "\u0431\u0440\u0430": 4415, "\u2581courage": 4416, "\u2581\u0431\u0430\u0447\u0443": 4417, "\u2581\u0432\u0456\u0434\u0442\u0432\u043e\u0440\u0435\u043d\u043d\u044f": 4418, "ec": 4419, "\u2581growth": 4420, "\u2581\u0432\u0430\u0436\u043b\u0438\u0432\u0456": 4421, "\u2581\u0441\u043f\u043e\u0441\u043e\u0431\u043e\u043c": 4422, "\u2581displayed": 4423, "\u2581model": 4424, "men": 4425, "\u2581\u0422\u0440\u0438": 4426, "\u2581\u0442\u043e\u0447\u043a\u0438": 4427, "\u0454\u043c\u043e\u0441\u044f": 4428, "\u2581placed": 4429, "\u2581\u043f\u043e\u044f\u0441\u043d\u0438\u0442\u0438": 4430, "\u2581\u041d\u0430\u0448": 4431, "\u2581\u043a\u043b\u044e\u0447": 4432, "\u2581Samuel": 4433, "\u2581\u0441\u043b\u0430\u0432\u0443": 4434, "time": 4435, "\u0442\u0456\u0432": 4436, "\u2581market": 4437, "\u2581\u0432\u043b\u0430\u0441\u043d\u0456": 4438, "\u2581\u0441\u0442\u0440\u0456\u043b": 4439, "\u2581manner": 4440, "ber": 4441, "\u2581\u0432\u0456\u0439\u043d\u0443": 4442, "\u2581assigned": 4443, "\u2581authorities": 4444, "\u2581\u0442\u0435\u043c\u0443": 4445, "\u2581region": 4446, "\u2581\u0441\u043b\u0443\u0436\u0438\u0442\u044c": 4447, "\u2581relief": 4448, "\u2581\u043f\u043e\u0437\u043d\u0430\u0447\u0435\u043d\u043e": 4449, "\u2581\u043f\u043e\u0442\u043e\u043c\u0443": 4450, "\u2581Cor": 4451, "\u2581direct": 4452, "\u2581easier": 4453, "\u2581fail": 4454, "\u0432\u0430\u043d": 4455, "\u2581\u043d\u0430\u0432\u0447\u0438\u0442\u0438\u0441\u044f": 4456, "\u2581\u043f\u0440\u0438\u0432": 4457, "\u2581\u0447\u0435\u043a\u0430\u0442\u0438": 4458, "\u2581broken": 4459, "\u2581national": 4460, "\u2581\u0440\u0435\u0436\u0438\u043c": 4461, "\u2581systems": 4462, "\u2581technology": 4463, "\u2581\u0445\u0440\u0438\u0441\u0442\u0438\u044f\u043d\u0441\u044c\u043a\u0438\u0445": 4464, "\u2581\u0432\u0438\u0434\u0438": 4465, "\u0438\u043d\u0430": 4466, "\u2581devotion": 4467, "\u2581\u043d\u0435\u043f\u0440\u0430\u0432\u0438\u043b\u044c\u043d\u043e": 4468, "\u2581\u043f\u0440\u0430\u0432\u0434\u0438\u0432\u043e\u0433\u043e": 4469, "\u2581\u0441\u0435\u0440\u0446\u0456": 4470, "\u2581broke": 4471, "\u2581development": 4472, "\u2581\u0406\u043d\u043e\u0434\u0456": 4473, "\u2581\u0442\u043e\u043c": 4474, "Applause": 4475, "\u2581Ah": 4476, "\u2581surprise": 4477, "\u2581unity": 4478, "\u2581conclusion": 4479, "\u2581\u043d\u0430\u0441\u0438\u043b\u043b\u044f": 4480, "\u2581\u0443\u044f\u0432\u0438\u0442\u0438": 4481, "\u2581Mount": 4482, "\u2581\u041f\u0440\u0438\u043f\u043e\u0432\u0456\u0441\u0442\u0435\u0439": 4483, "\u2581\u0432\u043d\u0438\u0437": 4484, "\u2581\u043f\u043e\u0447\u0443\u0432": 4485, "\u0433\u0430\u0440": 4486, "\u2581importance": 4487, "\u2581\u0432\u0456\u0434\u0447\u0443\u0442\u0442\u044f": 4488, "\u2581\u0434\u0456\u044f\u0442\u0438": 4489, "\u0443\u0432\u0430\u043b\u043e": 4490, "\u2581Through": 4491, "\u2581everybody": 4492, "\u2581floor": 4493, "\u2581\u0422\u0430\u043a\u0430": 4494, "\u2581\u0434\u0440\u0443\u0433\u043e\u0433\u043e": 4495, "\u2581Configure": 4496, "\u2581handle": 4497, "\u2581\u0445\u043e\u0447\u0435\u0448\u044c": 4498, "\u0440\u0443\u0447": 4499, "\u2581\u0441\u0435\u0441\u0442\u0440\u0438": 4500, "\u2581cry": 4501, "\u2581\u043b\u0435\u0436\u0438\u0442\u044c": 4502, "\u2581stone": 4503, "\u2581\u0411\u0456": 4504, "\u2581\u0437\u0430\u043b\u0438\u0448\u0430\u0454\u0442\u044c\u0441\u044f": 4505, "\u2581\u043a\u043e\u043c\u0430\u043d\u0434\u0438": 4506, "\u2581\u043f\u043e\u0448\u0443\u043a\u0443": 4507, "\u2581\u043f\u0440\u0435": 4508, "ard": 4509, "\u2581\u0417\u0435\u043c\u043b\u0456": 4510, "\u2581\u043d\u0430\u0437\u0432\u0438": 4511, "ka": 4512, "\u2581grew": 4513, "\u2581\u043f\u043e\u0442\u0440\u0456\u0431\u0435\u043d": 4514, "\u2581memory": 4515, "\u2581\u0432\u0432\u0430\u0436\u0430\u043b\u0438": 4516, "\u2581\u043d\u0430\u0433\u043e\u0434\u0443": 4517, "\u2581despite": 4518, "\u2581somebody": 4519, "\u0441\u043a": 4520, "\u2581sounds": 4521, "\u2581talked": 4522, "\u043d\u0435\u0440": 4523, "\u043e\u043b\u043e\u0433": 4524, "\u2581\u041d\u0430\u0437\u0432\u0430": 4525, "ah": 4526, "\u0439\u043d": 4527, "\u2581Finally": 4528, "\u2581\u0441\u0434\u0435\u043b\u0430\u0442\u044c": 4529, "\u0442\u043e\u043d": 4530, "\u044f\u043a": 4531, "\u2581Next": 4532, "\u2581famous": 4533, "\u0433\u043b\u0438": 4534, "\u2581blind": 4535, "\u2581\u0434\u0443\u0445\u043e\u0432\u043d\u043e\u0433\u043e": 4536, "\u2581match": 4537, "\u2581Christmas": 4538, "\u2581prayed": 4539, "\u2581\u0411\u043e\u0436\u0430": 4540, "\u2581\u0437\u0430\u043b\u0438\u0448\u0430\u0442\u0438\u0441\u044f": 4541, "\u2581\u043a\u0456\u043b\u044c\u043a\u043e\u0445": 4542, "\u2581\u0442\u0438\u043f": 4543, "\u2581\u0443\u0441\u043f\u0456\u0448\u043d\u043e": 4544, "\u0436\u0438\u0432": 4545, "\u2581assignment": 4546, "\u2581\u0448\u043b\u044f\u0445\u043e\u043c": 4547, "\u2581Check": 4548, "\u2581Ha": 4549, "\u2581\u0436\u0438\u0432\u0435\u043c\u043e": 4550, "\u2581\u043c\u043d\u043e\u0439": 4551, "\u2581\u0445\u0440\u0435\u0449\u0435\u043d\u043d\u044f": 4552, "\u043b\u0456\u0437": 4553, "\u2581conversation": 4554, "\u2581\u0443\u043c\u043e\u0432": 4555, "\u2581\u041c\u043e\u0436\u0435\u0442": 4556, "\u2581\u0433\u0440\u0456\u0445\u0430": 4557, "\u2581Set": 4558, "\u2581increased": 4559, "\u2581\u0434\u0443\u0445\u043e\u0432\u043d\u0438\u0439": 4560, "\u043b\u0435\u043a": 4561, "\u0444\u0435": 4562, "\u2581\u0431\u043e\u043b\u044e": 4563, "\u2581\u0437\u0430\u0441\u0442\u043e\u0441\u043e\u0432\u0443\u0432\u0430\u0442\u0438": 4564, "50": 4565, "\u2581religions": 4566, "\u2581\u0404\u0440\u0443\u0441\u0430\u043b\u0438\u043c\u0456": 4567, "\u2581\u0433\u0435": 4568, "\u2581affected": 4569, "\u2581trials": 4570, "\u2581\u0434\u0430\u0436\u0435": 4571, "\u2581\u041f\u0435\u0440\u0448": 4572, "\u2581Has": 4573, "\u2581adds": 4574, "\u2581fill": 4575, "\u2581\u0432\u0456\u0440\u043d\u0438\u0445": 4576, "\u258165": 4577, "\u2581aid": 4578, "\u2581churches": 4579, "\u2581\u0422\u0432\u043e\u0440\u0435\u0446\u044c": 4580, "\u2581\u0432\u0435\u043b\u0438\u043a\u0438\u043c": 4581, "\u2581\u0441\u0438\u043d\u0456\u0432": 4582, "Read": 4583, "\u2581\u043d\u0430\u043f\u0438\u0441\u0430\u043d\u043e": 4584, "\u2581\u043f\u0440\u043e\u0435\u043a\u0442": 4585, "\u2581network": 4586, "\u2581round": 4587, "\u2581\u0417\u0433\u043e\u0434\u043e\u043c": 4588, "\u2581Save": 4589, "\u2581en": 4590, "\u2581pure": 4591, "\u2581\u0433\u0430": 4592, "\u2581\u043d\u0430\u043a\u0430\u0437\u0430\u0432": 4593, "\u2581\u041d\u0430\u0441": 4594, "\u2581\u043a\u043d\u043e\u043f\u043a\u0438": 4595, "\u2581\u043a\u043e\u0434": 4596, "\u043b\u043e\u0433": 4597, "\u2581\u043d\u0438\u043a\u043e\u0433\u0434\u0430": 4598, "\u2581\u0440\u0435\u043b\u0456\u0433\u0456\u0439\u043d\u0438\u0445": 4599, "\u2581\u0441\u0442\u043e\u0457\u0442\u044c": 4600, "\u2581status": 4601, "\u2581watching": 4602, "\u2581\u043d\u0430\u043b\u0435\u0436\u0430\u0442\u044c": 4603, "\u2581\u0441\u043a\u0430\u0437\u0430\u0442\u044c": 4604, "\u043f\u043b": 4605, "\u0441\u0438\u043b": 4606, "\u2581task": 4607, "\u2581\u043f\u0430\u0440\u0443": 4608, "\u2581\u0447\u0430\u0441\u0442\u0438\u043d\u0456": 4609, "\u2581\u0456\u043d\u0448\u043e\u0457": 4610, "\u0434\u0438\u043d": 4611, "\u2581Am": 4612, "\u2581angry": 4613, "\u2581\u043f\u0435\u0440\u0435\u0441\u043b\u0456\u0434\u0443\u0432\u0430\u043d\u043d\u044f": 4614, "\u0433\u0456\u0434": 4615, "\u0436\u0438": 4616, "\u2581abuse": 4617, "\u2581decide": 4618, "\u2581stupid": 4619, "\u2581\u0435\u0439": 4620, "\u2581exists": 4621, "\u2581merely": 4622, "\u2581_": 4623, "\u2581\u0406\u0441\u0443\u0441\u043e\u043c": 4624, "\u2581\u043b\u0443\u0447\u0448\u0435": 4625, "\u043c\u0435\u0442\u044c\u0441\u044f": 4626, "\u2581\u0422\u043e\u0431\u0442\u043e": 4627, "\u0432\u0448\u0438": 4628, "\u2581tool": 4629, "\u2581\u0411\u0443\u043b\u043e": 4630, "\u2581\u0421\u0432\u044f\u0442\u043e\u0433\u043e": 4631, "\u2581\u043d\u0435\u0439": 4632, "\u044f\u0442\u0430\u0439\u0442\u0435": 4633, "\u2581supply": 4634, "\u2581\u0447\u0443\u0434\u043e\u0432\u0438\u0439": 4635, "\u2581Bethel": 4636, "\u2581Enter": 4637, "\u2581miss": 4638, "11": 4639, "\u2581\u0434\u0456\u0454": 4640, "\u2581China": 4641, "\u2581\u0440\u043e\u0431\u0438\u0448": 4642, "\u0442\u0440\u043e": 4643, "\u2581\u0431\u0435\u0440\u0435": 4644, "\u2581\u043d\u0435\u0432\u0434\u043e\u0432\u0437\u0456": 4645, "\u2581\u0441\u0442\u043e\u043b\u0456\u0442\u044c": 4646, "\u2581tongue": 4647, "\u2581\u0441\u0432\u0456\u0442\u043b\u0430": 4648, "\\": 4649, "\u00e9": 4650, "\u2581gun": 4651, "\u2581powers": 4652, "\u2581\u041e\u0447\u0435\u0432\u0438\u0434\u043d\u043e": 4653, "\u2581\u043f\u043e\u0434\u0440\u0443\u0436\u0436\u044f": 4654, "\u2581range": 4655, "\u2581sub": 4656, "\u043d\u0435\u043d\u043d\u044f": 4657, "\u2581count": 4658, "\u2581\u0432\u0438\u0434\u0456\u0432": 4659, "\u2581\u0441\u0442\u0430\u043d\u043e\u0432\u0438\u0449\u0435": 4660, "\u043d\u0438\u0435": 4661, "\u0430\u043b\u044c\u043d\u0438\u0439": 4662, "\u2581quick": 4663, "\u2581request": 4664, "\u2581wind": 4665, "\u2581\u043d\u0430\u0439\u0431\u0456\u043b\u044c\u0448\u0435": 4666, "\u2581\u043e\u043f\u0438\u0441": 4667, "over": 4668, "ful": 4669, "ot": 4670, "\u2581capital": 4671, "\u2581description": 4672, "\u2581designed": 4673, "\u2581\u043a\u0443\u0442": 4674, "\u2581\u0456\u043d\u0441\u0442\u0440\u0443\u043c\u0435\u043d\u0442\u0456\u0432": 4675, "\u2581solution": 4676, "\u2581Despite": 4677, "\u2581foreign": 4678, "\u2581private": 4679, "\u0434\u043e\u0432": 4680, "\u043a\u0456\u043d": 4681, "\u0449\u0456": 4682, "\u2581missing": 4683, "\u2581sharing": 4684, "\u2581\u0434\u043e\u043a\u0438": 4685, "\u2581\u043c\u0435\u0442\u0430": 4686, "ated": 4687, "\u2581\u043b\u0438\u0441\u0442": 4688, "\u0430\u0439\u0441\u044f": 4689, "\u2581operation": 4690, "\u2581\u0433\u0440\u0430\u0442\u0438": 4691, "\u044f\u0437\u043a\u0443": 4692, "\u2581effective": 4693, "\u2581improve": 4694, "\u2581\u0432\u0438\u043a\u043e\u0440\u0438\u0441\u0442\u043e\u0432\u0443\u044e\u0442\u044c": 4695, "\u2581\u043c\u0430\u0442\u0456\u0440": 4696, "\u0437\u0434": 4697, "\u2581garden": 4698, "\u2581plant": 4699, "\u2581\u043a\u0440\u0456\u043c": 4700, "\u2581City": 4701, "\u2581\u0434\u0443\u0440": 4702, "\u2581forgive": 4703, "\u2581throne": 4704, "\u2581\u0421\u043f\u043e\u0447\u0430\u0442\u043a\u0443": 4705, "\u2581\u043f\u043e\u043c\u0438\u043b\u043a\u0438": 4706, "\u2581\u0422\u043e\u0432\u0430\u0440\u0438\u0441\u0442\u0432\u0430": 4707, "\u0456\u0434\u043f\u043e\u0432\u0456\u0434\u0430\u043b\u044c\u043d\u0456\u0441\u0442\u044c": 4708, "\u2581\u044f\u043a\u0443\u0441\u044c": 4709, "ster": 4710, "\u0447\u043a\u0438": 4711, "\u2581currently": 4712, "\u2581\u043f\u043e\u0432\u0456\u0434\u043e\u043c\u043b\u044f\u0454": 4713, "\u0435\u043d\u0435": 4714, "\u2581\u0417\u0434\u0430\u0454\u0442\u044c\u0441\u044f": 4715, "\u2581\u0434\u0436\u0435\u0440\u0435\u043b\u0430": 4716, "\u0440\u0430\u0436\u0430": 4717, "\u2581()": 4718, "\u2581charge": 4719, "\u2581drawn": 4720, "\u2581\u043c\u043e\u0437\u043a\u0443": 4721, "\u2581\u0440\u044f\u0434\u043a\u0430": 4722, "\u2581loves": 4723, "\u2581\u044d\u0442\u043e\u0442": 4724, "\u0432\u0456\u043d": 4725, "\u2581genuine": 4726, "\u2581raise": 4727, "\u2581remains": 4728, "\u0434\u0430\u043b\u0430": 4729, "\u2581\u0432\u0456\u043a\u043d\u0456": 4730, "Let": 4731, "\u044f\u0437\u043d\u0438\u0446\u0456": 4732, "\u2581Similarly": 4733, "\u2581complex": 4734, "\u2581herself": 4735, "\u2581principle": 4736, "\u2581\u043f\u043e\u0434\u043e\u0440\u043e\u0436": 4737, "\u0441\u043a\u0430": 4738, "\u2581\u0441\u043b\u0443\u0436\u0438\u0442\u0435\u043b\u0456\u0432": 4739, "\u258125]": 4740, "\u2581discuss": 4741, "\u2581\u0425\u0430": 4742, "\u2581\u0431\u0456\u0431\u043b\u0456\u0439\u043d\u0443": 4743, "\u2581h": 4744, "\u2581property": 4745, "\u2581format": 4746, "\u2581lies": 4747, "\u2581amazing": 4748, "\u2581appearance": 4749, "\u2581tired": 4750, "\u2581\u0431\u0430\u0447\u0438\u0442\u044c": 4751, "que": 4752, "\u2581\u041c\u043e": 4753, "\u258110]": 4754, "\u2581automatically": 4755, "\u2581length": 4756, "\u2581terrible": 4757, "\u2581\u043f\u0440\u0430\u0446\u044f": 4758, "\u2581Brother": 4759, "\u2581State": 4760, "\u2581ran": 4761, "\u2581\u043f\u0443\u0431\u043b\u0456\u043a\u0430\u0446\u0456\u0457": 4762, "\u043b\u044e\u0454": 4763, "\u043c\u0435\u0442\u0435": 4764, "\u2581\u0436\u043e\u0434\u043d\u043e\u0457": 4765, "\u2581Day": 4766, "\u2581Saul": 4767, "\u2581TO": 4768, "\u2581\u043f\u0456\u0434\u0442\u0440\u0438\u043c\u0443\u0454": 4769, "io": 4770, "\u2581refused": 4771, "\u2581\u0434\u0440\u0443\u0436\u0438\u043d\u0438": 4772, "\u2581\u043d\u0430\u0433\u0430\u0434\u0443\u0432\u0430\u043d\u043d\u044f": 4773, "\u043c\u0438\u0440": 4774, "\u2581Without": 4775, "\u2581History": 4776, "\u2581dear": 4777, "\u2581includes": 4778, "\u2581\u041c\u043e\u0454": 4779, "\u2581\u0434\u0456\u044f\u043b\u044c\u043d\u043e\u0441\u0442\u0456": 4780, "\u2581Under": 4781, "\u2581\u0433\u0440\u0443\u043f": 4782, "\u2581\u0433\u0440\u0456\u0445\u0438": 4783, "\u2581\u043f\u043e\u0432\u0438\u043d\u043d\u043e": 4784, "\u0561": 4785, "\u2581cross": 4786, "\u2581\u0442\u0432\u0435\u0440\u0434": 4787, "\u2581content": 4788, "\u2581\u042f\u043a\u0438\u043c": 4789, "\u2581\u043c\u043e\u0457\u043c": 4790, "\u2581\u0441\u0432\u043e\u0431\u043e\u0434\u0443": 4791, "\u2581African": 4792, "\u2581honest": 4793, "\u2581\u043f\u043e\u0442\u0440\u0435\u0431\u0443": 4794, "\u2581\u0441\u043e\u0440\u043e\u043c": 4795, "\u2581mouse": 4796, "\u2581treat": 4797, "\u2581\u0441\u043f\u043e\u0432\u043d\u0435\u043d\u043d\u044f": 4798, "\u258118]": 4799, "\u2581fighting": 4800, "\u2581played": 4801, "\u2581\u0437\u043b\u043e\u0447\u0438\u043d": 4802, "\u2581\u0414\u0436\u043e": 4803, "\u2581\u041c\u0430\u0440\u0456\u044f": 4804, "\u2581\u043f\u043e\u0440": 4805, "\u043d\u0443\u0442\u044c": 4806, "\u2581belief": 4807, "\u2581desires": 4808, "\u2581\u041d\u0430\u0439": 4809, "\u2581\u0430\u0432\u0442\u043e\u043c\u0430\u0442\u0438\u0447\u043d\u043e": 4810, "\u2581\u0447\u0435\u043a\u0430\u0454": 4811, "20": 4812, "\u0435\u0442\u0435": 4813, "\u258142": 4814, "\u2581previous": 4815, "\u2581\u041f\u0435\u0440\u0435\u0433\u043b\u044f\u0434": 4816, "\u2581\u043c\u043e\u0433\u043b\u043e": 4817, "\u2581\u041c\u043e\u0439\u0441\u0435\u044f": 4818, "\u0440\u0456\u0432": 4819, "\u2581\u0432\u0437\u044f\u0432": 4820, "J": 4821, "\u2581experiences": 4822, "\u2581visited": 4823, "\u2581\u0431\u0456\u0431\u043b\u0456\u0439\u043d\u0435": 4824, "\u2581\u043f\u0440\u043e\u0434\u043e\u0432\u0436\u0443\u0432\u0430\u0442\u0438": 4825, "\u2581\u0442\u0456\u0439": 4826, "\u2581\u041c\u0430\u043a": 4827, "\u2581\u043d\u0435\u0431\u0435\u0441\u043d\u043e\u0433\u043e": 4828, "\u2581\u0442\u0435\u043a\u0438": 4829, "\u2581bodies": 4830, "\u2581co": 4831, "\u2581\u0456\u0441\u043d\u0443\u044e\u0442\u044c": 4832, "\u2581examine": 4833, "\u2581\u043c\u043e\u043b\u0438\u0442\u0438\u0441\u044f": 4834, "les": 4835, "\u043b\u0435\u0436": 4836, "\u2581\u043c\u0443\u0434\u0440\u043e": 4837, "\u2581\u0447\u043e\u0433\u043e\u0441\u044c": 4838, "\u0436\u0434": 4839, "\u043b\u0435\u0433": 4840, "\u2581\u043f\u0440\u0430\u0432\u0438\u043b\u0430": 4841, "\u0432\u0456\u043b\u044c": 4842, "\u258126]": 4843, "\u2581beauty": 4844, "\u2581site": 4845, "\u2581types": 4846, "\u2581\u0432\u043a\u0430\u0437\u0443\u0454": 4847, "\u2581\u0434\u0456\u044f\u043b\u044c\u043d\u0456\u0441\u0442\u044c": 4848, "\u2581encouragement": 4849, "ted": 4850, "\u0440\u0430\u0432": 4851, "\u2581Ephesians": 4852, "\u2581\u0441\u043b\u0443\u0436\u0430\u0442\u044c": 4853, "\u2581holding": 4854, "\u2581\u043b\u044e\u0434\u0441\u044c\u043a\u043e\u0433\u043e": 4855, "\u2581\u0441\u0442\u0430\u0440\u0456\u0439\u0448\u0438\u043d\u0438": 4856, "\u0438\u0432\u0448\u0438": 4857, "\u2581machine": 4858, "\u2581minds": 4859, "\u2581\u0419": 4860, "\u2581\u0434\u0432\u043e\u043c\u0430": 4861, "\u2581practices": 4862, "\u2581\u0456\u043b\u044e\u0441\u0442\u0440\u0430\u0446\u0456\u044e": 4863, "\u043b\u0435\u0439": 4864, "\u2581\u0440\u0435\u0437\u0443\u043b\u044c\u0442\u0430\u0442\u0456": 4865, "ca": 4866, "\u043f\u043e\u0440": 4867, "\u2581ended": 4868, "\u2581seriously": 4869, "\u2581\u0432\u0435\u043b\u0438\u043a\u043e\u0457": 4870, "\u2581\u0434\u043e\u0440\u043e\u0433\u0443": 4871, "\u2581\u043a\u0440\u0430\u0439": 4872, "\u2581\u043f\u0440\u0438\u043a\u043b\u0430\u0434\u0438": 4873, "\u2581\u0437\u043d\u0430\u043a": 4874, "\u2581\u0440\u0435\u0437\u0443\u043b\u044c\u0442\u0430\u0442": 4875, "\u043e\u043b\u043e": 4876, "\u2581\u0432\u0456\u0440\u0438\u0442\u0438": 4877, "\u2581\u0447\u043e\u0442\u0438\u0440\u044c\u043e\u0445": 4878, "\u2581University": 4879, "\u2581konqueror": 4880, "\u2581\u0422\u0440\u0435\u0431\u0430": 4881, "\u2581\u0432\u0456\u0440\u043d\u0456": 4882, "\u2581\u0434\u043e\u0432\u0435\u0434\u0435\u0442\u044c\u0441\u044f": 4883, "ba": 4884, "\u2581Any": 4885, "\u2581appeared": 4886, "\u2581rise": 4887, "\u2581\u043a\u043d\u0438\u0437\u0456": 4888, "\u2581\u043f\u043e\u0432\u0435\u0440\u043d\u0443\u0432\u0441\u044f": 4889, "\u2581\u0445\u043b\u043e\u043f\u0435\u0446\u044c": 4890, "\u041f\u043e\u0440\u0456\u0432\u043d\u044f\u0439\u0442\u0435": 4891, "\u2581factor": 4892, "\u2581minus": 4893, "\u2581\u0442\u0438\u0436\u043d\u044f": 4894, "\u043d\u0438\u0437": 4895, "\u0441\u0432\u0456\u0442": 4896, "\u0441\u043b\u0456\u0434": 4897, "\u2581reasonable": 4898, "\u2581rock": 4899, "\u2581\u0421\u0432\u0456\u0434\u043e\u043a": 4900, "\u2581\u0448\u043b\u044f\u0445\u0443": 4901, "\u25810.": 4902, "\u2581sky": 4903, "\u2581\u0433\u0430\u0437\u0435\u0442\u0456": 4904, "\u2581\u0456\u043d\u0430\u043a\u0448\u0435": 4905, "of": 4906, "\u2581radio": 4907, "\u2581violent": 4908, "\u2581\u0432\u0438\u0437\u043d\u0430\u0447\u0435\u043d\u043d\u044f": 4909, "\u2581\u0432\u0438\u043f\u0440\u043e\u0431\u0443\u0432\u0430\u043d\u043d\u044f": 4910, "\u2581\u043c\u043d\u043e\u0433\u043e": 4911, "\u2581imperfect": 4912, "\u2581warned": 4913, "\u2581\u0430\u043f\u043e\u0441\u0442\u043e\u043b\u0456\u0432": 4914, "\u2581fit": 4915, "\u2581occurred": 4916, "\u2581\u0432\u0438\u043a\u043e\u0440\u0438\u0441\u0442\u043e\u0432\u0443\u0454": 4917, "\u2581\u0441\u043b\u0443\u0433\u0438": 4918, "ff": 4919, "oc": 4920, "\u2581humble": 4921, "\u2581\u043d\u0435\u0433\u0430\u0439\u043d\u043e": 4922, "\u2581cope": 4923, "\u2581\u0432\u0435\u0441\u0442\u0438": 4924, "\u044b\u0439": 4925, "\u2581Bo": 4926, "\u2581design": 4927, "so": 4928, "\u2581reflect": 4929, "\u2581\u043c\u0438\u043d\u0443\u043b\u043e\u0433\u043e": 4930, "\u2581\u043f\u0440\u0430\u0432\u0438\u043b\u043e": 4931, "\u2581\u0432\u0440\u0430\u0436\u0435\u043d\u043d\u044f": 4932, "\u0430\u043b\u0438\u0441\u044f": 4933, "\u2581harm": 4934, "\u2581pictures": 4935, "\u258121,": 4936, "\u2581convinced": 4937, "\u2581\u043d\u043e\u0447\u0456": 4938, "\u2581speaks": 4939, "\u2581\u043f\u0435\u0440\u0435\u0433\u043b\u044f\u0434": 4940, "\u043d\u044b\u043c": 4941, "\u2581\u041f\u0438\u0441\u0430\u043d\u043d\u044f": 4942, "\u2581\u0431\u0440\u0430\u043a": 4943, "\u2581\u043c\u0430\u0441": 4944, "\u2581\u043d\u0435\u0431\u0443\u0434\u044c": 4945, "\u2581lesson": 4946, "\u2581\u041f\u043e\u043c\u0438\u043b\u043a\u0430": 4947, "\u2581\u0434\u0456\u0432\u0447\u0438\u043d\u0430": 4948, "\u2581\u0441\u0430\u043c\u0438\u0439": 4949, "\u2581\u0442\u0438\u0436\u0434\u0435\u043d\u044c": 4950, "\u0456\u0442": 4951, "\u2581\u0411\u0435\u043d": 4952, "\u2581understood": 4953, "\u043e\u0447": 4954, "\u2581ice": 4955, "\u2581resurrected": 4956, "\u2581trade": 4957, "See": 4958, "\u2581Up": 4959, "\u2581consequences": 4960, "\u2581listed": 4961, "ang": 4962, "\u0433\u043b\u0443": 4963, "\u2581journey": 4964, "\u2581\u043d\u0430\u043a\u0430\u0437": 4965, "\u2581\u0441\u0432\u0456\u0442\u043e\u0432\u043e\u0457": 4966, "for": 4967, "\u2581faced": 4968, "\u2581oxygen": 4969, "\u2581\u043f\u043e\u0447\u0430\u0442\u043e\u043a": 4970, "ver": 4971, "\u2581heads": 4972, "\u2581\u0407\u0445": 4973, "\u2581\u043b\u0438\u0445\u043e": 4974, "\u2581\u043c\u043e\u0436\u0435\u0448\u044c": 4975, "\u2581\u0449\u043e\u0434\u043d\u044f": 4976, "ance": 4977, "ler": 4978, "\u2581Con": 4979, "\u2581plants": 4980, "\u2581\u043d\u043e\u0432\u043e\u043c\u0443": 4981, "\u2581\u0440\u043e\u0441\u043b\u0438\u043d": 4982, "\u2581personally": 4983, "\u044e\u0454": 4984, "\u2581\u043d\u043e\u0440\u043c\u0430\u043b\u044c\u043d\u043e": 4985, "\u258124,": 4986, "\u2581\u0434\u0430\u0432\u0430\u0439": 4987, "\u2581\u0413\u0443": 4988, "\u2581\u043d\u0430\u0441\u0456\u043d\u043d\u044f": 4989, "ol": 4990, "\u2581East": 4991, "\u2581publication": 4992, "\u2581turns": 4993, "\u2581valuable": 4994, "\u2581\u043f\u0435\u0440\u0435\u043a\u043b\u0430\u0434": 4995, "\u2581purposes": 4996, "\u2581\u043e\u0432\u0435\u0446\u044c": 4997, "\u2581mistake": 4998, "\u2581viewed": 4999, "\u2581\u043f\u043e\u043a\u043e\u043b\u0456\u043d\u043d\u044f": 5000, "ger": 5001, "\u2581\u0422\u0438\u043c": 5002, "\u2581\u0437\u043c\u043e\u0436\u0435\u043c\u043e": 5003, "\u2581\u0441\u0442\u0430\u0440\u0448\u0438\u0445": 5004, "\u0447\u0430\u0441": 5005, "\u2581eternal": 5006, "\u2581legal": 5007, "\u2581\u0441\u0442\u043e\u0440\u0456\u0447\u0447\u044f": 5008, "\u2581huh": 5009, "\u2581\u043c\u043e\u0432\u0430\u043c\u0438": 5010, "\u2581\u0437\u0432\u0456\u0441\u0442\u043a\u0443": 5011, "\u0447\u043e\u043a": 5012, "\u2581\u0434\u043e\u043a\u0443\u043c\u0435\u043d\u0442": 5013, "\u2581\u0436\u043e\u0434\u043d\u0438\u0445": 5014, "\u2581association": 5015, "\u2581\u0437\u0432\u0456\u0442": 5016, "\u2581\u043d\u0430\u0432": 5017, "\u2581\u043f\u0456\u0448\u043b\u0438": 5018, "\u2581\u0441\u043a\u0430\u0436\u0443": 5019, "\u2581\u044f\u043a\u0456\u0441\u044c": 5020, "\u2581Italy": 5021, "\u2581\u0443\u043d\u0438\u043a\u043d\u0443\u0442\u0438": 5022, "\u043e\u0445": 5023, "\u2581Think": 5024, "\u2581literally": 5025, "\u2581wives": 5026, "\u2581\u043b\u0435\u0433\u0448\u0435": 5027, "\u044e\u0447\u0438\u0441\u044c": 5028, "\u2581\u0434\u043e\u0441\u0432\u0456\u0434": 5029, "\u2581\u043a\u0440\u0438": 5030, "\u2581\u043c\u0435\u0440\u0435\u0436\u0456": 5031, "\u2581\u043f\u043b\u044e\u0441": 5032, "\u043d\u0443\u043b\u0430": 5033, "\u0443\u0441": 5034, "\u2581ex": 5035, "\u2581presented": 5036, "\u2581\u0412\u0435\u0440": 5037, "\u2581\u0432\u0456\u0440\u044f\u0442\u044c": 5038, "\u2581\u043c\u0456\u0441\u0446\u0435\u0432\u043e\u0441\u0442\u0456": 5039, "\u2581\u043f\u043e\u0432\u0435\u0434\u0456\u043d\u043a\u0443": 5040, "\u2581\u0441\u0438\u0442\u0443\u0430\u0446\u0456\u044f": 5041, "\u2581\u0447\u0438\u0441\u043b\u0430": 5042, "\u2581damage": 5043, "\u2581household": 5044, "\u2581\u0431\u0430\u0442\u044c\u043a\u0430\u043c": 5045, "\u2581\u043e\u0441\u0442\u0430\u043d\u043d\u0456\u0439": 5046, "\u2581El": 5047, "\u2581\u043b\u0430": 5048, "\u2581\u0441\u0438\u0441\u0442\u0435\u043c\u0456": 5049, "\u2581\u0441\u043c\u0435\u0440\u0442\u0438": 5050, "\u0435\u0434": 5051, "\u2581contain": 5052, "\u2581dedication": 5053, "\u2581sell": 5054, "\u2581\u0431\u0456\u0431\u043b\u0456\u0439\u043d\u043e\u0457": 5055, "\u2581\u0440\u0430\u043d\u043d\u0456": 5056, "\u2581\u0441\u0435\u0441\u0442\u0435\u0440": 5057, "\u044f\u0437\u043d": 5058, "\u2581entry": 5059, "\u2581facts": 5060, "\u2581\u043c\u0456\u0441\u044f\u0446\u044c": 5061, "\u043d\u0438\u0446\u0456": 5062, "\u043d\u0442": 5063, "\u0445\u0456\u0434": 5064, "\u2581master": 5065, "\u2581\u0434\u0435\u0440\u0435\u0432\u043e": 5066, "\u2581\u0434\u0443\u0445\u043e\u0432\u043d\u0438\u0445": 5067, "vi": 5068, "\u043d\u043a\u0430": 5069, "\u2581applied": 5070, "\u2581\u043d\u0430\u043c\u0430\u0433\u0430\u0432\u0441\u044f": 5071, "\u2581\u043f\u043e\u0447\u0435\u043c\u0443": 5072, "\u2581\u043f\u0440\u0438\u0445\u043e\u0434\u0438\u0442\u044c": 5073, "\u2581\u0447\u0438\u0442\u0430\u0454\u043c\u043e": 5074, "\u2581\u041f\u043e\u043a\u0430\u0437\u0443\u0432\u0430\u0442\u0438": 5075, "\u2581\u043f\u043e\u0432\u0435\u0440\u043d\u0443\u0442\u0438\u0441\u044f": 5076, "\u2581\u0441\u0435\u0440\u0446\u0435\u043c": 5077, "\u041b\u0418": 5078, "\u041d\u0435": 5079, "\u2581Excuse": 5080, "\u2581\u041c\u0430\u043b": 5081, "\u2581\u0432\u0438\u0440\u0430\u0437": 5082, "\u2581\u043d\u0430\u043c\u0430\u0433\u0430\u044e\u0442\u044c\u0441\u044f": 5083, "pi": 5084, "\u2581\u0432\u0432\u0430\u0436\u0430\u0432": 5085, "\u2581\u0440\u0430\u043d\u043a\u0443": 5086, "om": 5087, "\u2581wedding": 5088, "\u2581forest": 5089, "\u2581\u041d\u0415": 5090, "\u2581\u0442\u0435\u043f\u0435\u0440\u044c": 5091, "\u0445\u0443": 5092, "\u2581indicate": 5093, "\u2581sad": 5094, "\u2581scale": 5095, "\u2581\u043f\u043e\u0431\u0430\u0447\u0438\u0442\u0435": 5096, "\u2581\u043f\u043e\u0445\u043e\u0434\u0438\u0442\u044c": 5097, "\u2581\u043f\u043e\u0447\u0430\u0442\u0438": 5098, "ER": 5099, "\u043c\u0435\u043d\u0448": 5100, "\u2581Spanish": 5101, "\u2581throw": 5102, "\u2581\u0432\u0438\u044f\u0432\u043b\u044f\u044e\u0442\u044c": 5103, "\u2581\u043a\u0443\u043f\u0438\u0442\u0438": 5104, "\u2581services": 5105, "ner": 5106, "\u2581\u0440\u0430\u0431": 5107, "\u0441\u0435\u0440": 5108, "\u2581catch": 5109, "\u2581divided": 5110, "\u2581except": 5111, "\u2581\u0410\u0432\u0441\u0442\u0440\u0430\u043b\u0456\u0457": 5112, "\u2581\u043a\u0430\u0437\u0430\u0442\u0438": 5113, "\u2581\u2010": 5114, "\u043d\u044b\u0445": 5115, "\u2581Everything": 5116, "\u2581Michael": 5117, "\u2581trip": 5118, "ho": 5119, "\u2581governments": 5120, "\u2581\u043f\u0440\u0438\u0447\u0438\u043d\u043e\u044e": 5121, "\u2581arrangement": 5122, "\u2581opposition": 5123, "\u043f\u0430\u043d": 5124, "\u2581photo": 5125, "\u2581\u044d\u0442\u0438\u043c": 5126, "\u0442\u044f\u0433": 5127, "\u258148": 5128, "\u2581Le": 5129, "\u2581\u0434\u043e\u043f\u043e\u043c\u0456\u0433": 5130, "\u2581\u0434\u0443\u043c\u0430\u0454\u0442\u0435": 5131, "\u2581divorce": 5132, "\u2581guard": 5133, "\u2581\u0441\u043f\u043e\u043d\u0443\u043a\u0443\u0454": 5134, "30": 5135, "ub": 5136, "\u0443\u0432\u0430\u0442\u0438\u0441\u044f": 5137, "\u2581\u0447\u0443\u043b\u0438": 5138, "\u2581feels": 5139, "\u2581hungry": 5140, "\u2581\u0413\u0456": 5141, "\u2581\u0432\u0438\u0440\u0456\u0448\u0438\u043b\u0438": 5142, "\u043a\u0443\u0432\u0430\u0442\u0438": 5143, "\u0404\u0433\u043e\u0432\u0430": 5144, "\u2581\u0441\u0438\u0442\u0443\u0430\u0446\u0456\u044e": 5145, "\u2581\u0443\u0441\u043f\u0456\u0445\u0443": 5146, "\u043d\u0438\u043a\u0456\u0432": 5147, "\u2581Put": 5148, "\u2581chief": 5149, "\u2581\u043d\u0430\u0448\u0456\u0439": 5150, "\u2581\u041d\u0456\u0447\u043e\u0433\u043e": 5151, "\u2581\u0432\u043e\u0442": 5152, "\u2581\u043f\u043e\u0433\u043b\u044f\u0434\u0438": 5153, "\u2581\u043f\u0440\u0438\u043a\u043b\u0430\u0434\u0443": 5154, "\u25811990": 5155, "\u2581\u043d\u0430\u0442\u0438\u0441\u043d\u0456\u0442\u044c": 5156, "\u0442\u044b": 5157, "\u2581Mexico": 5158, "\u2581missionaries": 5159, "\u2581\u0440\u0438\u0437\u0438\u043a": 5160, "\u0432\u0438\u043d": 5161, "\u2581\u0437\u043e\u0431\u043e\u0432": 5162, "\u041b\u041e": 5163, "\u043a\u0430\u0440": 5164, "\u2581advantage": 5165, "\u2581\u041c\u0430\u0431\u0443\u0442\u044c": 5166, "\u2581\u0432\u0438\u0434\u0443": 5167, "\u2581\u043f\u043e\u0445\u043e\u0434\u0436\u0435\u043d\u043d\u044f": 5168, "\u2581clothes": 5169, "\u2581lady": 5170, "\u2581remind": 5171, "\u2581\u0434\u0430\u043c": 5172, "\u2581\u0441\u043f\u0456\u043b\u043a\u0443\u0432\u0430\u043d\u043d\u044f": 5173, "\u2581rejoice": 5174, "\u2581\u0413\u0430\u0440": 5175, "\u2581\u0433\u0430\u0440\u044f\u0447": 5176, "\u2581\u043c\u0438\u043b\u043e\u0441\u0435\u0440\u0434\u044f": 5177, "\u2581character": 5178, "\u2581\u0411\u0456\u043b\u044c\u0448\u0435": 5179, "\u2581\u0441\u043e\u0442\u043d\u0456": 5180, "\u0441\u0442\u0430\u0432": 5181, "\u2581river": 5182, "\u2581\u043b\u0456\u043a\u0430\u0440\u043d\u0456": 5183, "\u043d\u043a\u0443": 5184, "\u258123:": 5185, "\u2581\u0422\u043e\u0433\u043e": 5186, "\u2581\u0426\u0456\u043a\u0430\u0432\u043e": 5187, "\u2581\u043c\u0456\u0441\u0442\u0438\u0442\u044c\u0441\u044f": 5188, "\u2581\u043d\u0430\u0440\u043e\u0434\u0438\u0432\u0441\u044f": 5189, "ph": 5190, "\u2581\u043f\u0440\u0438\u043d\u0446\u0438\u043f": 5191, "\u2581\u0443\u043c\u043e\u0432\u0438": 5192, "\u2581\u0432\u0438\u0445\u043e\u0434\u0438\u0442\u044c": 5193, "\u2581\u0434\u043e\u0441\u044f\u0433\u0442\u0438": 5194, "\u2581\u0434\u0443\u0448\u0443": 5195, "\u2581Spain": 5196, "\u2581constant": 5197, "\u2581\u0434\u043e\u043b\u0436\u043d\u044b": 5198, "\u2581\u044f\u043a\u043e\u0441\u044c": 5199, "\u0436\u0435\u043d\u043d\u044f": 5200, "\u0444\u0435\u0440": 5201, "\u2581apart": 5202, "\u2581demand": 5203, "\u2581surprised": 5204, "ap": 5205, "\u0456\u043d": 5206, "\u2581games": 5207, "\u2581\u0445\u0440\u0438\u0441\u0442\u0438\u044f\u043d\u0441\u044c\u043a\u043e\u0433\u043e": 5208, "ow": 5209, "\u2581Out": 5210, "\u2581factors": 5211, "\u2581\u043f\u043e\u0431\u0430\u0447\u0438\u043b\u0438": 5212, "\u0442\u0430\u043d": 5213, "\u2581Mo": 5214, "\u2581lay": 5215, "\u2581\u041e\u0442\u0435\u0446\u044c": 5216, "\u2581highly": 5217, "\u2581label": 5218, "\u2581Mrs": 5219, "\u2581\u041d\u0435\u0432\u0434\u043e\u0432\u0437\u0456": 5220, "\u2581\u041f\u0440\u043e\u0448\u0443": 5221, "\u2581\u043d\u043e\u0432\u043e": 5222, "amp": 5223, "\u041a\u0410": 5224, "\u2581greatly": 5225, "\u2581observe": 5226, "\u2581\u041d\u0430\u0441\u043a\u0456\u043b\u044c\u043a\u0438": 5227, "\u043c\u0443\u0442\u044c\u0441\u044f": 5228, "\u2581context": 5229, "\u2581extent": 5230, "\u2581victims": 5231, "\u2581\u0441\u0432\u0456\u0434\u0447\u0435\u043d\u043d\u044f": 5232, "\u2581alcohol": 5233, "\u2581remained": 5234, "\u2581\u043c\u0456\u043d\u0443\u0441": 5235, "\u0430\u043a": 5236, "\u2581potential": 5237, "\u2581\u0419\u043e\u0432": 5238, "\u2581\u043f\u043e\u0441\u043b\u0430\u0432": 5239, "\u2581Q": 5240, "\u2581describes": 5241, "\u2581print": 5242, "\u2581\u0421\u0432\u043e\u0457\u0445": 5243, "\u2581\u0422\u0438\u043c\u043e\u0444\u0456\u044f": 5244, "\u2581\u0437\u0432\u0456\u0434\u0441\u0438": 5245, "\u2581\u0446\u0435\u0440\u043a\u0432\u0430": 5246, "\u2581culture": 5247, "\u2581separate": 5248, "\u2581anyway": 5249, "\u2581dealing": 5250, "\u2581\u0432\u0456\u0434\u043d\u043e\u0448\u0435\u043d\u043d\u044f": 5251, "\u2581\u043e\u0431\u043e\u0445": 5252, "\u041d\u0410": 5253, "\u041d\u0418": 5254, "\u2581perform": 5255, "ak": 5256, "\u2581sovereignty": 5257, "\u2581waters": 5258, "\u2581\u0427\u0430\u0441\u0442\u043e": 5259, "\u2581\u043f\u043b\u0456\u0434": 5260, "\u2581\u0440\u044f\u0434": 5261, "\u2581Both": 5262, "\u2581beast": 5263, "\u2581r": 5264, "\u2581\u0414\u0430\u043b\u0456": 5265, "ize": 5266, "\u043e\u0432\u043e\u0457": 5267, "\u0441\u044c\u043a\u043e\u043c\u0443": 5268, "\u2581ma": 5269, "\u2581\u0434\u0432\u043e\u0454": 5270, "\u0456\u0448\u0435": 5271, "\u2581overseer": 5272, "\u2581removed": 5273, "\u2581\u0432\u0435\u043b\u0438\u043a\u043e\u044e": 5274, "\u2581\u043d\u043e\u0432\u0430": 5275, "\u2581feature": 5276, "\u2581map": 5277, "\u2581\u043c\u0435\u0442\u0443": 5278, "\u2581\u0440\u043e\u0434\u0438\u043d\u0430": 5279, "mon": 5280, "\u043b\u0438\u0432\u0456": 5281, "\u2581financial": 5282, "\u2581finding": 5283, "\u2581prepare": 5284, "\u2581\u0406\u0437\u0440\u0430\u0457\u043b\u044e": 5285, "\u2581\u0417\u0432\u0456\u0434\u043a\u0438": 5286, "\u0432\u0435\u043d": 5287, "\u2581checked": 5288, "\u2581involves": 5289, "\u2581\u0421\u0435\u0440": 5290, "\u2581\u0444\u043e\u0442\u043e": 5291, "\u2581\u0446\u0456\u043b\u0443": 5292, "bo": 5293, "\u2581\u043d\u0438\u0436\u0447\u0435": 5294, "\u2581\u0440\u0456\u0432\u043d\u0456": 5295, "\u2581committed": 5296, "\u2581weapons": 5297, "\u2581\u0445\u0456\u0431\u0430": 5298, "\u041b\u0406": 5299, "\u2581USA": 5300, "\u2581icon": 5301, "\u2581leaves": 5302, "\u2581\u0437\u0430\u043f\u0443\u0441\u043a\u0443": 5303, "\u2581arms": 5304, "\u2581dinner": 5305, "\u2581wear": 5306, "\u2581\u0437\u043d\u0430\u0439\u0434\u0435\u043d\u043e": 5307, "\u2581\u0445\u043b\u043e\u043f\u0446\u0456": 5308, "\u2581\u0421\u043a\u0430\u0436\u0438": 5309, "tro": 5310, "\u2581Book": 5311, "\u2581\u0432\u0430\u0448\u0456\u0439": 5312, "\u0430\u043d\u0430": 5313, "\u2581ill": 5314, "\u2581smoke": 5315, "\u2581\u0430\u0431\u0441\u043e\u043b\u044e\u0442\u043d\u043e": 5316, "\u2581\u0437\u043b\u0430": 5317, "\u2581\u0441\u0435\u0440\u0432\u0435\u0440\u0430": 5318, "There": 5319, "\u2581developing": 5320, "\u2581reference": 5321, "\u2581star": 5322, "\u2581younger": 5323, "\u2581\u0434\u0443\u043c\u043a\u0430": 5324, "\u2581base": 5325, "\u2581\u0412\u0441\u0442\u0430\u0432\u043a\u0430": 5326, "\u2581\u043d\u0430\u0437\u0432\u0430\u0432": 5327, "\u2581\u0456\u043d\u0441\u0442\u0440\u0443\u043c\u0435\u043d\u0442": 5328, "\u2581suddenly": 5329, "\u2581\u0432\u0456\u0434\u043a\u0440\u0438\u0442\u0442\u044f": 5330, "\u2581\u0434\u0435\u043b\u0430\u0442\u044c": 5331, "\u2581\u043e\u0445\u043e\u0447\u0435": 5332, "\u0439\u043c\u0430": 5333, "\u2581\u0421\u0442\u0432\u043e\u0440\u0438\u0442\u0438": 5334, "\u2581\u0431\u0430\u0447\u0438\u043b\u0430": 5335, "\u2581\u0437\u0430\u043a\u043e\u043d\u0443": 5336, "AN": 5337, "\u0433\u0435\u043d": 5338, "\u0442\u0442\u044f": 5339, "\u258175": 5340, "\u0438\u0435": 5341, "\u2581horse": 5342, "\u2581\u043c\u0435": 5343, "\u2581scene": 5344, "\u2581theme": 5345, "\u2581\u0445\u0432\u043e\u0440\u043e\u0431": 5346, "\u0442\u043a\u0430": 5347, "\u2581grown": 5348, "\u2581\u041f\u0440\u0438\u043c\u0456\u0442\u043a\u0438": 5349, "\u2581\u0422\u0430\u043a\u0435": 5350, "\u2581\u0437\u043d\u0438\u0449\u0438\u0442\u0438": 5351, "\u2581reward": 5352, "\u2581\u043c\u0456\u0441\u044f\u0446\u044f": 5353, "\u2581\u0456\u043d\u0448\u0430": 5354, "\u2581carrying": 5355, "\u2581\u0432\u0438\u043d\u0430": 5356, "\u2581\u0441\u0443\u0434\u0443": 5357, "Q": 5358, "day": 5359, "\u0441\u0441": 5360, "\u2581enabled": 5361, "\u2581\u043a\u043e\u0436\u043d\u0430": 5362, "\u0404": 5363, "\u0435\u043d\u0438\u0439": 5364, "\u2581Among": 5365, "\u2581mere": 5366, "\u2581\u0424\u0440\u0430\u043d\u0446\u0456\u0457": 5367, "\u2581\u0432\u0438\u043a\u0443\u043f": 5368, "\u2581\u043f\u043e\u0447\u0438\u043d\u0430\u0454": 5369, "\u2581\u0440\u044f\u0434\u043e\u043a": 5370, "\u2581camp": 5371, "\u2581\u042f\u043a\u0456\u0432": 5372, "\u2581\u043c\u0435\u0440\u0442\u0432\u0438\u0445": 5373, "\u2581\u043e\u0441\u0442\u0430": 5374, "\u2581\u043f\u043e\u0440\u044f\u0434": 5375, "\u2581\u0442\u0438\u043f\u0443": 5376, "\u2581\u0414\u0456\u0439\u0441\u043d\u043e": 5377, "\u2581\u0432\u0456\u043a": 5378, "\u0439\u0441\u044f": 5379, "\u2581accident": 5380, "\u2581bank": 5381, "\u2581\u0420\u043e": 5382, "\u2581\u043f\u0438\u0441\u0430\u0442\u0438": 5383, "\u2581\u0441\u0442\u0440\u0430\u0445\u0443": 5384, "\u2581shut": 5385, "\u2581vast": 5386, "\u2581\u041d\u0430\u043b\u0430\u0448\u0442\u0443\u0432\u0430\u0442\u0438": 5387, "\u2581\u043d\u043e\u0432\u043e\u0457": 5388, "\u2581\u043f\u0440\u044f\u043c": 5389, "\u0434\u0435\u043b": 5390, "\u0435\u043d\u0438\u0435": 5391, "\u2581ruin": 5392, "\u2581\u0432\u0438\u0431\u0440\u0430\u0442\u0438": 5393, "\u2581George": 5394, "\u2581card": 5395, "\u2581healthy": 5396, "\u2581preached": 5397, "\u2581\u0434\u0440\u0443\u0437\u044f\u043c\u0438": 5398, "\u2581\u0440\u043e\u0434\u0443": 5399, "\u2581painting": 5400, "\u2581sake": 5401, "\u2581stood": 5402, "\u2581Actually": 5403, "\u2581Everyone": 5404, "\u2581extra": 5405, "\u2581\u0432\u0456\u0434\u043f\u043e\u0432\u0456\u0441\u0442\u0438": 5406, "\u2581\u0443\u0441\u0456\u043c\u0430": 5407, "\u0442\u0443\u0440": 5408, "\u2581\u0432\u0434\u0430\u0454\u0442\u044c\u0441\u044f": 5409, "\u0430\u043d\u0442": 5410, "\u2581\u0432\u0456\u0447\u043d\u043e\u0433\u043e": 5411, "min": 5412, "\u0433\u043e\u0432\u043e\u0440": 5413, "\u0434\u044c": 5414, "\u043b\u0435\u0440": 5415, "\u0442\u0432\u0435\u0440": 5416, "\u2581West": 5417, "\u2581commands": 5418, "\u2581rights": 5419, "\u2581\u0437\u0430\u043a\u0456\u043d\u0447\u0435\u043d\u043d\u044f": 5420, "\u2581\u0441\u044e\u0434\u0430": 5421, "\u043b\u044e\u0431": 5422, "\u0442\u0430\u043a": 5423, "\u2581Joshua": 5424, "\u2581communication": 5425, "\u2581deliver": 5426, "\u2581shepherd": 5427, "\u2581\u0434\u0430\u043b\u0438": 5428, "\u2581\u0434\u0440\u0443\u043a\u0443": 5429, "\u0444\u0430": 5430, "\u2581feed": 5431, "\u2581scientific": 5432, "\u2581\u0411\u0443": 5433, "\u2581\u043f\u0430\u043d\u0456": 5434, "\u2581\u0441\u0430\u0434": 5435, "\u2581400": 5436, "\u2581quiet": 5437, "\u2581\u043f\u0440\u043e\u0440\u043e\u043a\u0430": 5438, "\u2581prophets": 5439, "\u2581\u0434\u043e\u043f\u043e\u043c\u043e\u0433\u0430": 5440, "\u2581\u0437\u0430\u043f\u0438\u0442\u0430\u0442\u0438": 5441, "\u0442\u0435\u043b\u044c": 5442, "\u2581additional": 5443, "\u2581sacrifices": 5444, "\u2581\u041c\u0430\u0442": 5445, "\u2581\u043a\u0443\u043f": 5446, "\u2581\u043f\u0456\u0432": 5447, "\u2581\u0440\u0430\u0434\u0456": 5448, "\u2581\u0441\u0438\u043c\u0432\u043e\u043b": 5449, "mi": 5450, "\u2581finish": 5451, "\u2581\u0411\u0430\u0442\u044c\u043a\u043e": 5452, "\u2581\u043d\u043e\u0432\u0438\u043d\u0430": 5453, "\u2581directory": 5454, "\u2581\u0434\u0443\u043c\u0430\u0454\u0448": 5455, "\u2581\u043f\u0440\u0430\u0432\u043e\u0440\u0443\u0447": 5456, "\u2581\u043f\u0440\u0430\u0446\u044e\u044e\u0442\u044c": 5457, "\u2581\u0448\u0430\u0440": 5458, "\u2581nuclear": 5459, "\u2581\u0414\u0435\u043a\u043e\u0442\u0440\u0456": 5460, "\u2581mark": 5461, "\u2581\u0414\u0438\u0432\u0456\u0442\u044c\u0441\u044f": 5462, "\u2581\u0434\u0438\u0432\u0456\u0442\u044c\u0441\u044f": 5463, "\u2581\u043b\u0435": 5464, "\u044f\u0447": 5465, "\u258137": 5466, "\u2581keeps": 5467, "\u2581\u0432\u0456\u0440\u0448": 5468, "\u2581guide": 5469, "\u2581input": 5470, "\u2581\u043f\u0438\u0442\u0430\u043d\u044c": 5471, "\u2581\u043f\u0440\u0430\u0446\u044e\u0432\u0430\u0432": 5472, "\u2581\u0440\u0435\u043b\u0456\u0433\u0456\u044e": 5473, "\u2581\u0446\u0435\u043d\u0442\u0440": 5474, "\u0430\u043b\u044c\u043d\u0456": 5475, "\u2581Three": 5476, "\u2581\u0437\u0432\u0430\u043d\u043e\u0433\u043e": 5477, "\u2581\u0440\u043e\u0431\u0438\u043c\u043e": 5478, "\u041e\u043f\u043b\u0435\u0441\u043a\u0438": 5479, "\u2581Clearly": 5480, "\u2581summer": 5481, "\u2581\u0410\u0434\u0430\u043c\u0430": 5482, "\u2581\u0437\u043c\u0456\u043d\u044e\u0432\u0430\u0442\u0438": 5483, "mp": 5484, "\u2581unless": 5485, "\u2581\u0432\u043f\u0435\u0432\u043d\u0435\u043d\u0456": 5486, "\u2581Chinese": 5487, "\u2581north": 5488, "\u2581\u0412\u0430\u0448\u0430": 5489, "\u2581\u043f\u043e\u0434\u0456\u043b": 5490, "\u2581Britain": 5491, "\u2581\u0413\u0434\u0435": 5492, "\u2581\u041a\u0430\u0440": 5493, "\u2581\u041f\u0438\u0441\u044c\u043c\u043e": 5494, "\u2581\u0421\u0432\u044f\u0442\u0435": 5495, "\u2581\u0427": 5496, "\u2581\u0430\u0432\u0442\u043e": 5497, "\u2581\u0457\u0445\u043d\u044c\u043e\u0457": 5498, "ip": 5499, "\u043d\u0443\u043b\u0438": 5500, "\u2581\u0434\u0438\u0432\u0438\u0442\u0438\u0441\u044f": 5501, "\u2581\u043f\u043e\u0437": 5502, "\u0434\u0430\u043b\u0438": 5503, "\u2581April": 5504, "\u2581soldiers": 5505, "\u2581\u0447\u0443\u0434\u043e\u0432\u0456": 5506, "\u2581elements": 5507, "\u2581\u0432\u0438\u043a\u043e\u0440\u0438\u0441\u0442\u0430\u043d\u043e": 5508, "\u2581\u0434\u043e\u0434\u0430\u0454": 5509, "ence": 5510, "\u0434\u0435\u043c": 5511, "\u2581track": 5512, "\u2581\u0413\u0430": 5513, "\u2581\u0433\u043e\u0440": 5514, "ally": 5515, "\u043b\u044f\u0442\u044c": 5516, "\u2581darkness": 5517, "\u2581favorite": 5518, "\u2581murder": 5519, "\u2581\u0412\u0436\u0435": 5520, "der": 5521, "\u2581objects": 5522, "\u2581\u0432\u0438\u0431\u0443\u0445": 5523, "\u2581beat": 5524, "\u2581\u0431\u0435\u0437\u043f\u0435\u043a\u0438": 5525, "\u2581\u043c\u043e\u043b\u043e\u0434": 5526, "\u043e\u0434": 5527, "\u0442\u0430\u0440": 5528, "\u0448\u044c": 5529, "\u2581Asia": 5530, "\u2581belong": 5531, "\u2581president": 5532, "\u2581\u0441\u0430\u043c\u0438\u043c": 5533, "ron": 5534, "\u2581comments": 5535, "\u2581solve": 5536, "\u2581\u0440\u0430\u0434\u043e\u0441\u0442\u0456": 5537, "\u2581\u0445\u0440\u0438\u0441\u0442\u0438\u044f\u043d\u0441\u0442\u0432\u0430": 5538, "\u2581\u0490": 5539, "\u044e\u0441\u044f": 5540, "\u2581Last": 5541, "\u2581\u0432\u043e\u0440\u043e\u0433\u0456\u0432": 5542, "\u2581\u0434\u0438\u0432": 5543, "\u2581strange": 5544, "\u2581truths": 5545, "\u2581\u0425\u0440\u0438\u0441\u0442\u043e\u043c": 5546, "\u2581\u0441\u043a\u043b\u0430\u0434\u0430\u0454\u0442\u044c\u0441\u044f": 5547, "\u2581\u0445\u0440\u0430\u043c\u0443": 5548, "\u043d\u0443\u044e": 5549, "\u2581(1": 5550, "\u2581General": 5551, "\u2581describe": 5552, "\u2581forced": 5553, "\u2581sides": 5554, "\u2581\u0404\u0432\u0440\u043e\u043f\u0456": 5555, "\u2581\u0434\u0435\u043b\u043e": 5556, "\u2581\u043b\u0438\u0445\u0430": 5557, "\u2581\u0444\u043e\u0440\u043c\u0438": 5558, "\u2581\u0447\u0438\u043c\u043e\u0441\u044c": 5559, "\u2581\u0412\u0435\u043b\u0438\u043a\u0438\u0439": 5560, "15": 5561, "\u2581Family": 5562, "\u2581\u043f\u043e\u0433\u043b\u044f\u0434\u0443": 5563, "\u2581\u0442\u0432\u043e\u0433\u043e": 5564, "mer": 5565, "\u2581dying": 5566, "\u2581official": 5567, "\u2581\u0436\u0456\u043d\u043a\u0443": 5568, "tion": 5569, "\u2581tears": 5570, "\u2581\u041f\u0441\u0430\u043b\u043e\u043c": 5571, "\u2581\u0437\u0440\u043e\u0437\u0443\u043c\u0456\u043b\u0438": 5572, "\u2581subjects": 5573, "\u2581\u043f\u043e\u0442\u043e\u043c": 5574, "\u2581\u0446\u0456\u043b\u0438\u0439": 5575, "\u0456\u043b\u044c": 5576, "\u2581double": 5577, "\u2581male": 5578, "\u2581\u0441\u043b\u0430\u0432\u0438": 5579, "\u2581Latin": 5580, "\u2581aside": 5581, "\u2581\u043f\u0435\u0440\u0448\u0438\u0445": 5582, "\u2581recognized": 5583, "\u2581\u043b\u0438\u0441\u0442\u0430": 5584, "\u2581\u043c\u0456\u0441\u0446\u044f\u0445": 5585, "\u2581\u0441\u0442\u0430\u0442\u0442\u044f": 5586, "\u0448\u0438\u0439": 5587, "\u2581till": 5588, "\u2581walked": 5589, "\u2581wealth": 5590, "\u2581\u0442\u0440\u0430": 5591, "\u043a\u043e\u043d\u0430": 5592, "\u2581keys": 5593, "\u2581method": 5594, "\u2581sweet": 5595, "\u2581\u042f\u043a\u043e\u0432\u0430": 5596, "\u0433\u0443\u0431": 5597, "\u2581quit": 5598, "\u2581smoking": 5599, "\u2581\u0433\u043e\u043b\u043e\u0432\u0430": 5600, "\u2581\u0434\u043e\u043f\u043e\u043c\u043e\u0436\u0443\u0442\u044c": 5601, "\u2581\u0441\u043f\u0430\u0442\u0438": 5602, "org": 5603, "qui": 5604, "\u0454\u044e": 5605, "\u2581mountains": 5606, "st": 5607, "\u2581\u043c\u043e\u043b\u0438\u0442\u0432\u0456": 5608, "\u2581\u043f\u0435": 5609, "\u2581\u0441\u0430\u043c\u0438\u0445": 5610, "\u043b\u0438\u0432\u0430": 5611, "\u2581\u0432\u043f\u0435\u0440\u0435\u0434": 5612, "\u2581\u043d\u0456\u044f\u043a": 5613, "\u2581supported": 5614, "\u2581\u0437\u043c\u0456\u0433": 5615, "\u2581\u0441\u0442\u0430\u043b\u043e\u0441\u044c": 5616, "\u2581\\": 5617, "\u2581sword": 5618, "\u2581views": 5619, "\u2581\u043f\u0440\u043e\u0434\u043e\u0432\u0436": 5620, "\u2581\u0440\u0435\u0430\u043b\u044c\u043d": 5621, "\u2581\u0448\u0430\u043d\u0441": 5622, "old": 5623, "\u041d\u041e": 5624, "\u2581covered": 5625, "\u2581doctors": 5626, "\u2581loyalty": 5627, "\u2581remnant": 5628, "\u2581units": 5629, "\u2581\u0440\u0443\u043a\u0430\u0445": 5630, "\u2581Remove": 5631, "\u2581balance": 5632, "\u2581dance": 5633, "\u2581demons": 5634, "\u043d\u043e\u0435": 5635, "\u2581Whatever": 5636, "\u2581station": 5637, "\u2581visible": 5638, "\u2581\u0427\u0435": 5639, "\u2581\u043f\u0440\u0438\u043a\u043b\u0430\u0434\u043e\u043c": 5640, "\u2581Being": 5641, "\u2581column": 5642, "\u2581\u043d\u0435\u043f\u043e": 5643, "\u2581\u0440\u043e\u0437\u043f\u043e\u0432\u0456\u0441\u0442\u0438": 5644, "\u2581discussion": 5645, "ni": 5646, "\u043a\u043b\u0430\u0441\u0442\u0438": 5647, "\u043b\u0430\u0434": 5648, "\u2581attended": 5649, "\u2581formed": 5650, "\u2581illustration": 5651, "\u2581increasing": 5652, "\u2581overcome": 5653, "\u2581relatives": 5654, "\u2581stories": 5655, "\u2581\u043f\u0456\u0440": 5656, "\u2581kinds": 5657, "\u2581studied": 5658, "\u2581\u0417\u0456": 5659, "\u2581\u0440\u043e\u0437\u0432\u0438\u0442\u043a\u0443": 5660, "\u2581\u0445\u043b\u0456\u0431": 5661, "\u2581poverty": 5662, "\u2581verse": 5663, "\u2581\u0432\u0438\u0440\u0456\u0448\u0438\u0442\u0438": 5664, "\u0432\u0435\u0434": 5665, "\u0435\u043d\u0442": 5666, "\u2581fields": 5667, "\u2581\u0441\u0442\u0432\u043e\u0440\u0456\u043d\u043d\u044f": 5668, "\u258139": 5669, "\u2581Ben": 5670, "\u2581plans": 5671, "\u2581\u0432\u0438\u043a\u043e\u043d\u0443\u0454": 5672, "\u2581\u0434\u043e\u043a\u0442\u043e\u0440": 5673, "\u2581chose": 5674, "\u2581\u043e\u0440\u0433\u0430\u043d\u0456\u0437\u0430\u0446\u0456\u044f": 5675, "ator": 5676, "sh": 5677, "\u2581Back": 5678, "\u2581Sure": 5679, "\u2581Very": 5680, "\u0433\u043e\u0434": 5681, "\u2581grateful": 5682, "\u2581organized": 5683, "\u2581\u041f\u0440\u043e\u0433\u0440\u0430\u043c\u0430": 5684, "\u2581killing": 5685, "\u2581offering": 5686, "\u2581pieces": 5687, "gen": 5688, "\u2581affection": 5689, "\u2581stick": 5690, "\u2581\u0421\u0432\u043e\u0457\u043c": 5691, "\u2581\u043a\u043e\u0436\u043d\u043e\u0457": 5692, "\u2581\u043f\u043e\u0432\u0456\u0434\u043e\u043c\u043b\u0435\u043d\u044c": 5693, "\u2581\u043f\u043e\u0442\u0440\u0435\u0431\u0430": 5694, "\u2581Hold": 5695, "\u2581helpful": 5696, "\u2581theory": 5697, "\u2581yesterday": 5698, "\u2581\u043c\u043e\u0440\u0435": 5699, "\u0454\u0442\u0435": 5700, "\u2581Ra": 5701, "\u2581\u041d\u0430\u0441\u043f\u0440\u0430\u0432\u0434\u0456": 5702, "\u2581\u041d\u0430\u0448\u0430": 5703, "\u0454\u0432": 5704, "\u2581product": 5705, "\u2581slaves": 5706, "\u2581\u0432\u0438\u043f\u0430\u0434\u043a\u0456\u0432": 5707, "\u2581\u0432\u0438\u0441\u043d\u043e\u0432\u043a\u0443": 5708, "\u2581strengthen": 5709, "\u2581writes": 5710, "\u2581\u041d\u043e\u0432\u0438\u0439": 5711, "\u2581\u043f\u0435\u0440\u0448\u0456": 5712, "\u2581Blurb": 5713, "\u2581clergy": 5714, "\u2581features": 5715, "}": 5716, "\u0446\u0430": 5717, "\u2581Mar": 5718, "\u2581proud": 5719, "\u2581\u0432\u0441\u0442\u0430\u043d\u043e\u0432\u043b\u0435\u043d\u043e": 5720, "ru": 5721, "\u0454\u0448": 5722, "\u2581\u0434\u0440\u0443\u0436\u0438\u043d\u0443": 5723, "\u2581\u0437\u0430\u043f\u0440\u043e\u0448\u0435\u043d\u043d\u044f": 5724, "appname": 5725, "\u2581fault": 5726, "\u2581referred": 5727, "\u2581\u041d\u0438\u043c": 5728, "\u2581actual": 5729, "\u2581essential": 5730, "\u2581sat": 5731, "by": 5732, "\u0430\u043d\u0456": 5733, "\u2581prophecies": 5734, "\u2581\u0434\u043e\u0440\u043e\u0437\u0456": 5735, "\u2581\u0441\u043f\u043e\u043a\u0456\u0439": 5736, "\u041b\u0410": 5737, "\u0440\u0443\u0448": 5738, "\u2581Pi": 5739, "\u2581treated": 5740, "\u2581\u0419\u043e\u0441\u0438\u043f": 5741, "\u2581\u0437\u0430\u0432\u0435\u0440\u0448\u0435\u043d\u043d\u044f": 5742, "\u2581publications": 5743, "\u2581v": 5744, "\u2581\u0431\u0435\u0440\u0443\u0442\u044c": 5745, "\u2581\u0432\u0441\u0435\u0440\u0435\u0434\u0438\u043d\u0456": 5746, "\u2581\u0432\u0443\u043b\u0438\u0446\u0456": 5747, "\u2581\u043a\u043b\u0456\u0442\u0438\u043d\u0438": 5748, "\u2581\u0430\u043f\u043e\u0441\u0442\u043e\u043b\u0430": 5749, "\u2581\u043a\u043e\u0436\u043d\u0443": 5750, "\u2581\u0441\u043b\u0443\u0436\u0431\u0443": 5751, "\u0440\u044b": 5752, "\u2581Page": 5753, "\u2581\u0421\u0432\u0456\u0434\u043a\u043e\u043c": 5754, "au": 5755, "\u2581anybody": 5756, "\u2581media": 5757, "\u2581movie": 5758, "\u2581ruler": 5759, "\u2581\u043c\u0435\u0442\u043e\u044e": 5760, "\u043d\u0430\u0439": 5761, "\u2581\u0412\u0456\u0434\u043a\u0440\u0438\u0442\u0438": 5762, "\u2581\u0441\u0442\u0430\u0440\u0448\u0456": 5763, "\u2581\u0447\u043b\u0435\u043d": 5764, "\u2581\u0449\u0430\u0441\u043b\u0438\u0432\u0456": 5765, "\u0438\u0441\u0442": 5766, "\u25810,": 5767, "\u2581Brazil": 5768, "\u2581situations": 5769, "\u2581starts": 5770, "\u2581\u043f\u0440\u043e\u0434\u043e\u0432\u0436\u0443\u0454": 5771, "\u0432\u0438\u043a\u043e\u0440\u0438\u0441\u0442\u043e\u0432\u0443\u0454\u0442\u044c\u0441\u044f": 5772, "\u2581delight": 5773, "\u2581quoted": 5774, "\u2581\u0447": 5775, "\u0448\u0438\u043c": 5776, "\u2581Peace": 5777, "\u2581Russian": 5778, "\u2581larger": 5779, "\u2581otherwise": 5780, "\u2581weak": 5781, "\u2581www": 5782, "\u2581\u0437\u0430\u043a\u043e\u043d\u0438": 5783, "\u2581\u0440\u043e\u0437\u043f\u043e\u0432\u0456\u0432": 5784, "ens": 5785, "\u043d\u0456\u0448\u0435": 5786, "\u2581turning": 5787, "\u2581\u043f\u0440\u0438\u043d\u0435\u0441\u0435": 5788, "\u0576": 5789, "\u2581output": 5790, "\u2581release": 5791, "\u2581\u0404\u0440\u0443\u0441\u0430\u043b\u0438\u043c\u0430": 5792, "\u2581\u043f\u0456\u0434\u0442\u0440\u0438\u043c\u043a\u0443": 5793, "ab": 5794, "\u2581Russia": 5795, "\u2581publishers": 5796, "\u2581\u043c\u0456": 5797, "\u2581\u043d\u0456\u043a\u043e\u0433\u043e": 5798, "\u0432\u0435\u0440\u0448": 5799, "\u043b\u0438\u043d": 5800, "\u2581totally": 5801, "\u2581\u041c\u043e\u0440": 5802, "\u2581\u0432\u0438\u0433\u043b\u044f\u0434\u0456": 5803, "\u2581\u0433\u0456": 5804, "\u2581\u043f\u0435\u0440\u0448\u0438\u043c": 5805, "\u2581\u0441\u0432\u044f\u0442\u043e": 5806, "\u258155": 5807, "\u2581ain": 5808, "\u2581everywhere": 5809, "\u2581\u041d\u0430\u0432\u0456\u0449\u043e": 5810, "\u2581\u0421\u0456": 5811, "\u2581\u0439\u043c\u043e\u0432\u0456\u0440\u043d\u043e": 5812, "\u2581\u0447\u0435\u0440\u0433\u0443": 5813, "\u2581\u043f\u043e\u0440\u0443\u0447": 5814, "\u00a9": 5815, "\u2581\u0440\u0430\u0434\u0456\u043e": 5816, "\u2581bus": 5817, "\u2581\u043b\u0456\u043a\u0430\u0440": 5818, "\u2581\u043c\u0430\u044e\u0447\u0438": 5819, "\u2581\u043d\u0430\u0432\u0447\u0430\u0454": 5820, "\u2581\u0440\u043e\u0437\u0432\u0438\u043d\u0443\u0442\u0438": 5821, "\u2581\u043e\u043f\u0435\u0440\u0430\u0446\u0456\u0457": 5822, "\u0412\u0410": 5823, "\u0441\u0442\u0432\u0443": 5824, "\u2581grand": 5825, "\u2581\u0431\u0430\u043d\u043a": 5826, "\u2581\u0432\u043e\u0437": 5827, "\u2581\u044f\u043a\u0430\u0441\u044c": 5828, "use": 5829, "\u2581hide": 5830, "\u2581resources": 5831, "ek": 5832, "\u2581\u043d\u0430\u0437\u0430\u0432\u0436\u0434\u0438": 5833, "\u2581\u0441\u0442": 5834, "BAR": 5835, "\u0438\u043b\u043e\u0441\u044c": 5836, "\u0440\u044f\u0434": 5837, "\u2581\u0441\u043b\u043e\u0432\u043e\u043c": 5838, "\u2581Um": 5839, "\u2581conflict": 5840, "\u2581invitation": 5841, "\u2581\u043c\u0430\u0442\u0435\u0440\u0456\u0430\u043b": 5842, "\u0432\u0435\u0440\u0442": 5843, "\u2581Close": 5844, "\u2581\u0441\u043a\u0430\u0436\u0456\u043c\u043e": 5845, "\u258113]": 5846, "\u2581shouldn": 5847, "\u2581\u0437\u0430\u0445\u0438\u0441\u0442": 5848, "\u2581\u043f\u0440\u043e\u0444\u0435\u0441\u043e\u0440": 5849, "\u2581\u0442\u0430\u0442\u043e": 5850, "\u2581\u0447\u0438\u0442\u0430\u0447\u0456\u0432": 5851, "\u2581sold": 5852, "\u2581\u043c\u0435\u0448\u043a\u0430\u043d\u0446\u0456\u0432": 5853, "\u2581\u0441\u0432\u0456\u0434\u0447\u0438\u0442\u044c": 5854, "\u2581reveal": 5855, "\u2581sincere": 5856, "\u2581credit": 5857, "\u2581shared": 5858, "\u2581\u0425\u0440\u0438\u0441\u0442\u0438\u044f\u043d\u0441\u0442\u0432\u0430": 5859, "\u2581\u043f\u043e\u043c\u0438\u043b\u043a\u0430": 5860, "\u2581consideration": 5861, "\u2581decades": 5862, "\u2581territory": 5863, "\u2581\u042f\u043f\u043e\u043d\u0456\u0457": 5864, "\u2581\u0441\u0435\u0433\u043e\u0434\u043d\u044f": 5865, "When": 5866, "\u0432\u0435\u043b\u0438": 5867, "\u2581150": 5868, "\u2581elderly": 5869, "\u2581\u043c\u0430\u0448\u0438\u043d\u0430": 5870, "\u0431\u0435\u0440\u0435": 5871, "\u2581CD": 5872, "\u2581opposite": 5873, "\u2581\u043f\u043e\u0432\u0435\u0434\u0456\u043d\u043a\u0438": 5874, "\u2581\u043f\u043e\u0441\u0442\u0443\u043f\u043e\u0432\u043e": 5875, "\u25815]": 5876, "\u2581moves": 5877, "\u2581somewhere": 5878, "\u2581\u0432\u0437\u044f\u043b\u0438": 5879, "\u2581\u043d\u0435\u0434\u043e": 5880, "\u2581\u043e\u0434\u0440\u0430\u0437\u0443": 5881, "\u0433\u043e\u0442\u043e\u0432": 5882, "\u0442\u043e\u043a": 5883, "\u2581calm": 5884, "\u2581onto": 5885, "\u2581\u0412\u0456\u0440": 5886, "\u2581\u0430\u043d\u0433\u043b": 5887, "\u2581\u0437\u043d\u0430\u0447\u0438\u0442": 5888, "\u2581\u0447\u0430\u0441\u0442\u0438\u043d": 5889, "\u2581Sunday": 5890, "\u2581block": 5891, "eg": 5892, "eth": 5893, "\u2581\u041a\u043e\u0433\u0434\u0430": 5894, "\u2581\u0432\u0441\u0435\u0433\u0434\u0430": 5895, "\u2581exact": 5896, "\u2581\u043d\u0435\u043b\u0435\u0433\u043a\u043e": 5897, "\u2581En": 5898, "\u2581mention": 5899, "\u2581twice": 5900, "\u2581\u0432\u0438\u043f\u0430\u0434\u043a\u0430\u0445": 5901, "\u2581\u0437\u0430\u043e\u0445\u043e\u0447\u0443\u0454": 5902, "\u2581Work": 5903, "\u2581\u0415\u0439": 5904, "\u2581\u0425\u043e": 5905, "\u2581\u043a\u043d\u0438\u0433\u0443": 5906, "\u2581\u043d\u0430\u0441\u0442\u0443\u043f\u043d\u0438\u0445": 5907, "\u2581\u0442\u0435\u043c\u0438": 5908, "\u2581\u043f\u0440\u0430\u0432\u0434\u0438\u0432\u0456": 5909, "\u0426": 5910, "\u0434\u043e\u043b": 5911, "\u2581gas": 5912, "\u2581goals": 5913, "\u2581obedience": 5914, "\u2581\u0417\u0430\u043a\u043e\u043d\u0443": 5915, "\u2581\u043d\u0430\u043c\u0430\u0433\u0430\u0454\u0442\u044c\u0441\u044f": 5916, "\u2581\u043f\u0440\u043e\u0432\u043e\u0434\u0438\u0442\u0438": 5917, "\u2581\u043f\u0443": 5918, "\u2581\u0441\u043f\u0440": 5919, "\u2581\u0441\u043f\u0456\u0432\u0447\u0443\u0442\u0442\u044f": 5920, "ti": 5921, "\u2581\u0432\u043f\u043b\u0438\u0432\u0430\u0442\u0438": 5922, "\u2581\u0434\u043e\u043b\u0436\u043d\u0430": 5923, "\u2581\u043a\u043e\u043c\u043f\u0430\u043d\u0456\u0457": 5924, "\u2581\u0441\u043f\u043e": 5925, "\u2581released": 5926, "\u0430\u0454\u043c\u043e": 5927, "\u2581causing": 5928, "\u2581fly": 5929, "\u2581hey": 5930, "\u2581trained": 5931, "\u2581\u043e\u0431\u043c\u0435\u0436\u0435\u043d\u043d\u044f": 5932, "\u2581\u043f\u043e\u0441\u0442\u0430\u0432\u0438\u0432": 5933, "\u044e\u0442": 5934, "\u2581commanded": 5935, "\u2581manifest": 5936, "\u2581\u0420\u0430": 5937, "\u2581\u0432\u0456\u0434\u043a\u0440\u0438\u0442\u043e": 5938, "\u0432\u043e\u0440": 5939, "\u2581\u043a\u0440\u0430\u044e": 5940, "\u0432\u0456\u0441": 5941, "\u0454\u043c\u043e\u0441\u044c": 5942, "\u2581\u0434\u043e\u0437\u0432\u043e\u043b\u0438\u0432": 5943, "\u043b\u0435\u043c": 5944, "\u0440\u0435\u0434": 5945, "\u2581\u0417\u043c\u0456\u043d\u0438\u0442\u0438": 5946, "\u2581changing": 5947, "\u2581\u0434\u0456\u043b": 5948, "\u2581\u043c\u0430\u0448\u0438\u043d\u0438": 5949, "\u2581\u043f\u0438\u0442\u0438": 5950, "\u2581\u043f\u043e\u043c\u043d\u043e\u0436\u0438\u0442\u0438": 5951, "\u2581surely": 5952, "\u2581\u0434\u0435\u043a\u043e\u043b\u0438": 5953, "\u2581Search": 5954, "\u2581TRANS": 5955, "\u2581unable": 5956, "\u2581\u0434\u0438\u0441\u043a": 5957, "\u2581\u0444\u043e\u0440\u043c\u0443": 5958, "\u043c\u043e\u0436": 5959, "\u2581attending": 5960, "\u2581gathered": 5961, "\u2581sing": 5962, "\u2581victim": 5963, "\u2581\u0412\u0438\u0431\u0430\u0447\u0442\u0435": 5964, "\u2581\u0434\u043e\u0449": 5965, "\u2581\u043c\u0438\u043d\u0443\u043b\u043e\u043c\u0443": 5966, "\u2581\u0445\u043e\u0442\u0435\u043b": 5967, "\u0434\u0430\u043b": 5968, "\u2581Red": 5969, "\u2581essentially": 5970, "\u2581traditional": 5971, "\u2581\u041f\u0440\u0438\u043c\u0456\u0440\u043e\u043c": 5972, "\u2581\u043c\u0456\u0441\u044f\u0446\u0456": 5973, "\u2581indicates": 5974, "\u2581\u0411\u0435\u0440": 5975, "\u2581\u0437\u043c\u043e\u0433\u043b\u0438": 5976, "\u2581\u043d\u0430\u0434\u0456": 5977, "\u2581\u0440\u043e\u0437\u0443\u043c\u0456\u043d\u043d\u0456": 5978, "\u2581IP": 5979, "\u2581Shift": 5980, "\u2581channel": 5981, "\u2581neighbors": 5982, "\u2581\u041c\u0443": 5983, "\u2581\u041d\u0456\u043a\u043e\u043b\u0438": 5984, "\u2581\u0442\u043e\u0449\u043e": 5985, "\u2581determine": 5986, "\u2581\u0435\u043b\u0435\u043c\u0435\u043d\u0442": 5987, "\u2581\u043a\u0443": 5988, "\u2581\u043f\u0430\u043d\u0435": 5989, "\u2581\u0440\u0430\u0431\u0430": 5990, "\u2581\u0457\u0445\u043d\u0456\u043c": 5991, "ley": 5992, "\u043d\u0456\u0432": 5993, "\u2581Co": 5994, "\u2581proof": 5995, "\u2581structure": 5996, "\u2581\u0413\u0435": 5997, "\u2581\u0432\u0438\u044f\u0432\u0438\u043b\u0438": 5998, "\u2581\u0447\u0443\u0434\u043e\u0432\u0443": 5999, "\u0443\u0432\u0430\u0432\u0441\u044f": 6000, "\u2581snow": 6001, "\u2581trial": 6002, "\u2581\u0419\u043e\u0432\u0430": 6003, "\u2581\u0431\u0443\u043a\u0432\u0430\u043b\u044c\u043d\u043e": 6004, "\u2581\u0432\u0447\u0438\u0442\u044c": 6005, "\u0433\u0435\u0440": 6006, "\u2581Fuck": 6007, "\u2581\u0432\u0431\u0438\u0442\u0438": 6008, "\u2581\u043d\u0430\u0440\u0435\u0448\u0442\u0456": 6009, "\u2581Welcome": 6010, "\u2581joined": 6011, "\u2581urged": 6012, "\u2581\u0432\u0438\u0442\u0440\u0430\u0442\u0438": 6013, "\u2581\u043d\u0430\u0434\u0430\u0454": 6014, "\u2581\u0441\u0430\u043c\u043e\u043c\u0443": 6015, "\u2581\u0434\u0440\u0443\u0433\u0438\u0439": 6016, "\u2581\u043b\u044e\u0434\u0441\u044c\u043a\u0438\u0445": 6017, "\u2581\u043f\u043e\u0441\u043b\u0456\u0434\u043e\u0432\u043d\u0438\u043a\u0456\u0432": 6018, "\u2581compassion": 6019, "\u2581\u0440\u043e": 6020, "\u2581HTML": 6021, "\u2581boat": 6022, "\u2581\u0432\u0456\u0434\u0447\u0443\u0432\u0430\u0442\u0438": 6023, "\u2581\u043f\u043e\u0434\u0456\u0431\u043d\u0435": 6024, "\u2581\u043f\u0440\u0438\u0439\u043d\u044f\u043b\u0438": 6025, "ld": 6026, "\u0448\u0441\u044f": 6027, "\u2581Gilead": 6028, "\u2581heat": 6029, "\u2581meal": 6030, "\u2581shoot": 6031, "\u2581\u0433\u0430\u0437\u0435\u0442\u0430": 6032, "\u0431\u0443\u0442": 6033, "\u0448\u0438\u0445": 6034, "\u2581inhabitants": 6035, "\u2581\u0433\u043e\u0434\u0438\u043d\u0443": 6036, "\u2581\u043f\u0440\u043e\u0433\u0440\u0430\u043c\u0456": 6037, "\u2581programs": 6038, "\u2581remote": 6039, "\u2581\u0437\u043c\u043e\u0436\u0443\u0442\u044c": 6040, "\u2581\u0446": 6041, "\u2581\u0448\u043a\u043e\u0434\u0438": 6042, "\u0430\u043b\u0430\u0441\u044c": 6043, "\u2581specified": 6044, "\u043a\u043e\u0432\u0430": 6045, "\u2581Error": 6046, "\u2581react": 6047, "\u2581string": 6048, "\u2581\u0413\u043e\u043b": 6049, "\u2581\u0421\u0438": 6050, "\u2581\u043f\u043e\u0448\u0443\u043a": 6051, "\u258124]": 6052, "\u2581compare": 6053, "\u2581walls": 6054, "\u2581\u043f\u0440\u0438\u0432\u0456\u0442": 6055, "\u2581\u0440\u043e\u0437\u043c\u043e\u0432\u0438": 6056, "\u0448\u043a\u0430": 6057, "\u2581October": 6058, "\u2581endurance": 6059, "\u2581\u043f\u043e\u0434\u0443\u043c\u0430\u0442\u0438": 6060, "\u0434\u0443\u043c": 6061, "\u2581evident": 6062, "\u2581marry": 6063, "\u2581waste": 6064, "\u2581\u043a\u043e\u043c": 6065, "\u2581\u043f\u0440\u043e\u0435\u043a\u0442\u0443": 6066, "\u043a\u0443\u043f": 6067, "\u2581\u0434\u043e\u0432\u0456\u0440\u044f\u0442\u0438": 6068, "\u0430\u043b\u043e\u0441\u044f": 6069, "\u258116]": 6070, "\u2581secular": 6071, "\u2581tiny": 6072, "\u2581worshipers": 6073, "\u2581Furthermore": 6074, "\u2581\u0433\u043e\u0440\u0456": 6075, "\u0439\u0442\u0435\u0441\u044c": 6076, "\u0441\u043b\u0430\u0432": 6077, "\u2581\u0412\u0438\u0431\u0435\u0440\u0456\u0442\u044c": 6078, "\u2581\u0434\u0432\u043e": 6079, "\u2581\u0441\u043b\u0430\u0431": 6080, "\u2581\u0443\u0447\u043d\u044f\u043c": 6081, "\u0456\u0447\u043d\u0438\u0439": 6082, "\u2581\u0436\u0438\u0437\u043d\u044c": 6083, "\u2581\u0442\u0438\u0436\u043d\u0456\u0432": 6084, "\u0430\u043b\u044c\u043d\u0430": 6085, "\u25816]": 6086, "\u2581impressed": 6087, "\u2581log": 6088, "\u2581majority": 6089, "\u2581\u0431\u0430\u0442\u044c\u043a\u0430\u043c\u0438": 6090, "My": 6091, "\u041f\u043e": 6092, "\u044e\u044e\u0442\u044c": 6093, "\u2581funny": 6094, "\u2581\u0434\u0430\u043d\u043e": 6095, "\u2581houses": 6096, "\u0435\u0440\u0430": 6097, "\u043a\u043e\u0432\u0456": 6098, "\u2581\u043f\u0435\u0432\u043d\u0438\u0439": 6099, "\u043b\u0441\u044f": 6100, "\u2581familiar": 6101, "\u2581planning": 6102, "\u2581pointed": 6103, "\u2581rulers": 6104, "\u2581television": 6105, "\u2581\u0411\u0456\u043b\u044c\u0448": 6106, "\u2581\u043c\u043e\u0440\u0441\u044c\u043a": 6107, "\u2581\u0443\u0432\u0430\u0436\u043d\u043e": 6108, "\u043d\u0435\u0439": 6109, "\u2581Ex": 6110, "\u2581\u0433\u0430\u0440\u043d\u0438\u0439": 6111, "\u2581\u0433\u043e\u0432\u043e\u0440\u044e": 6112, "\u2581\u043e\u0441\u0442\u0430\u043d\u043d\u0456\u0445": 6113, "\u2581\u0441\u043f\u0440\u0430\u0432\u0430\u0445": 6114, "\u2581bird": 6115, "\u2581\u0410\u0444\u0440\u0438\u0446\u0456": 6116, "\u2581\u043f\u0440\u0430\u0432\u0438\u043b": 6117, "\u2581\u042f\u043a\u043e\u0441\u044c": 6118, "\u2581\u0430\u0432\u0442\u043e\u0440": 6119, "\u2581\u0437\u0440\u0430\u0437\u043e\u043a": 6120, "\u2581\u043a\u043d\u0438\u0436\u043a\u0430": 6121, "\u2581\u0428\u0442\u0430\u0442\u0430\u0445": 6122, "\u2581closely": 6123, "\u2581expressions": 6124, "\u2581movement": 6125, "\u043d\u0430\u0441\u043b\u0456\u0434\u043e\u043a": 6126, "\u2581illness": 6127, "\u2581require": 6128, "\u25811997": 6129, "\u2581female": 6130, "\u2581\u0436\u043e\u0434\u043d": 6131, "40": 6132, "\u2581bound": 6133, "\u2581\u043f\u043e\u0441\u0438\u043b\u0430\u043d\u043d\u044f": 6134, "ities": 6135, "\u043b\u0435\u043d\u0438\u0439": 6136, "\u0447\u0438\u0442": 6137, "\u2581International": 6138, "\u2581obedient": 6139, "\u2581\u0411\u0456\u0431\u043b\u0456\u0439\u043d": 6140, "\u2581\u0434\u0443\u043c\u0430\u0454": 6141, "\u2581\u0434\u0456\u0432\u0447\u0430\u0442": 6142, "\u2581\u0441\u0442\u0430\u0442\u0435\u0439": 6143, "\u2581tools": 6144, "\u2581\u0442\u0438\u0441\u043a": 6145, "\u0430\u043d\u0433": 6146, "\u0441\u0456\u044f": 6147, "\u2581agreed": 6148, "\u2581gifts": 6149, "\u2581possibly": 6150, "izing": 6151, "\u044f\u0442\u0430\u044e": 6152, "\u2581colors": 6153, "\u2581\u041f\u0443": 6154, "\u2581\u0440\u0456\u0437\u043d\u0438\u043c\u0438": 6155, "\u0438\u043d\u0443": 6156, "\u25811970": 6157, "\u2581construction": 6158, "\u2581generally": 6159, "\u2581\u0432\u0456\u0434\u043a\u0440\u0438\u0432": 6160, "\u043f\u0435\u0440\u0435\u0434": 6161, "\u2581milk": 6162, "\u2581\u0434\u043e\u0431\u0440\u043e\u0433\u043e": 6163, "\u2581\u043b\u044e\u0434\u0441\u044c\u043a\u0456": 6164, "\u2581River": 6165, "\u2581discussed": 6166, "\u2581hidden": 6167, "\u2581identify": 6168, "\u2581nobody": 6169, "\u2581\u0436\u0435\u0440\u0442\u0432": 6170, "\u2581\u0444\u0456": 6171, "TORS": 6172, "\u043a\u043b\u0430\u0432": 6173, "\u2581armies": 6174, "\u2581pull": 6175, "\u2581severe": 6176, "\u2581\u041d\u0430\u0442\u043e\u043c\u0456\u0441\u0442\u044c": 6177, "\u2581\u0432\u043a\u0430\u0437\u0430\u043d\u043e": 6178, "\u2581\u0432\u043a\u0430\u0437\u0456\u0432\u043d\u0438\u043a": 6179, "\u2581delivered": 6180, "\u2581\u0437\u0440\u043e\u0431\u043b\u044e": 6181, "\u2581\u043a\u0435\u0440\u0443\u0432\u0430\u0442\u0438": 6182, "\u2581\u043c\u0456\u0446\u043d\u043e": 6183, "\u2581\u043f\u043e\u0431\u043e\u0436\u043d": 6184, "\u0430\u043b\u0430\u0441\u044f": 6185, "\u2581\").": 6186, "\u2581Ko": 6187, "\u2581moon": 6188, "\u2581\u0437\u0434\u0430\u0442\u043d\u0456\u0441\u0442\u044c": 6189, "\u2581arm": 6190, "\u2581fair": 6191, "\u2581\u043b\u0456\u0432\u043e\u0440\u0443\u0447": 6192, "not": 6193, "\u041d\u0430": 6194, "\u2581Land": 6195, "\u2581challenges": 6196, "\u2581dress": 6197, "\u2581threat": 6198, "\u2581\u0411\u0430\u0442\u044c\u043a\u0438": 6199, "\u2581\u0435\u043d\u0435\u0440\u0433\u0456\u0457": 6200, "\u2581\u0442\u0435\u0440\u043c\u0456\u043d": 6201, "net": 6202, "\u2581labor": 6203, "\u2581\u0411\u0443\u0434\u044c\u0442\u0435": 6204, "\u2581\u041c\u043e\u043d": 6205, "\u2581Philippians": 6206, "\u2581prospect": 6207, "\u2581\u0437\u0430\u043f\u0438\u0441\u0438": 6208, "\u0445\u043e\u043f": 6209, "\u0449\u0443": 6210, "\u2581\u0434\u0440\u0443\u0433\u043e\u043c": 6211, "\u2581\u0441\u0443\u0441\u043f\u0456\u043b\u044c\u0441\u0442\u0432\u0430": 6212, "\u2581\u0456\u0434\u0435\u0457": 6213, "\u043b\u043b": 6214, "\u2581diseases": 6215, "\u2581ought": 6216, "\u2581\u0432\u0438\u0441\u043d\u043e\u0432\u043e\u043a": 6217, "\u2581\u043d\u0430\u0432\u0447\u0430\u0432": 6218, "\u2581\u043f\u043e\u043a\u0430\u0437\u0443": 6219, "\u2581\u0441\u043c\u0435\u0440\u0442\u044e": 6220, "\u2581\u0442\u0440\u0438\u043c\u0430\u0442\u0438": 6221, "\u2581\u0432\u0438\u043d\u043e": 6222, "\u2581\u043f\u0440\u043e\u0442\u0438\u0432": 6223, "\u0430\u0442\u044c\u0441\u044f": 6224, "\u2581closed": 6225, "\u2581\u0406\u0437\u0440\u0430\u0457\u043b\u044f": 6226, "\u2581\u0414\u0456\u0442\u0438": 6227, "\u2581\u0440\u043e\u0431\u0438\u0442\u0435": 6228, "\u0438\u043d": 6229, "\u0440\u0456\u044f": 6230, "\u2581YOU": 6231, "\u2581patients": 6232, "\u2581properly": 6233, "\u2581\u0445\u0440\u0438\u0441\u0442\u0438\u044f\u043d\u0430\u043c\u0438": 6234, "\u2581\u0454\u0434\u0438\u043d\u0438\u0439": 6235, "iv": 6236, "\u0435\u043a": 6237, "\u043d\u0456\u0441": 6238, "\u2581acceptable": 6239, "\u2581board": 6240, "\u2581iron": 6241, "\u2581\u043a\u0443\u043b\u044c\u0442\u0443\u0440": 6242, "\u2581\u043f\u0435\u0440\u0448\u0443": 6243, "\u2581\u043f\u0456": 6244, "\u2581\u0441\u0442\u0430\u0440\u0456\u0439\u0448\u0438\u043d": 6245,
[...]
